<unk>	0
<s>	0
</s>	0
.	-2.96008
,	-3.37218
▁di	-4.11829
▁dan	-4.30216
▁saya	-4.39323
▁yang	-4.39927
▁dua	-4.42841
nya	-4.83543
▁	-4.91792
▁puluh	-4.93483
▁yg	-4.96437
▁ada	-4.98049
▁aku	-5.04835
▁bisa	-5.05356
▁tiga	-5.05482
▁ke	-5.08966
▁untuk	-5.20419
▁satu	-5.23089
▁ini	-5.25693
an	-5.28028
▁dengan	-5.38275
▁lima	-5.42986
▁si	-5.4625
▁nya	-5.49281
▁mau	-5.50289
▁itu	-5.50365
▁ya	-5.54225
▁dari	-5.54918
▁kita	-5.55519
▁enam	-5.58107
kan	-5.58934
▁a	-5.60237
▁karena	-5.63993
▁sembilan	-5.64574
▁hp	-5.694
▁empat	-5.72356
▁delapan	-5.72925
▁tujuh	-5.75
▁min	-5.75725
i	-5.75924
▁pantai	-5.80931
▁home	-5.81621
▁tidak	-5.81956
▁juga	-5.82706
▁jadi	-5.85266
▁lagi	-5.86392
▁ratus	-5.88312
▁credit	-5.9011
▁ga	-5.90531
▁gak	-5.92943
▁ikutan	-5.953
▁sudah	-5.95772
▁kali	-5.97224
▁s	-5.97707
▁b	-5.98016
▁adalah	-5.99972
▁semoga	-6.00085
▁apa	-6.01981
▁d	-6.02571
▁se	-6.05743
▁buat	-6.08943
in	-6.09575
▁dm	-6.13011
▁belas	-6.13677
▁tapi	-6.14191
▁sama	-6.14611
▁indonesia	-6.14908
▁orang	-6.15191
▁aja	-6.20551
▁kamu	-6.20731
▁kredit	-6.22568
▁jangan	-6.26142
▁yuk	-6.2708
▁akan	-6.27267
▁kalau	-6.27575
▁harus	-6.29839
▁ber	-6.30494
a	-6.30691
▁hari	-6.32334
▁lebih	-6.34727
s	-6.34958
▁dia	-6.35352
▁banyak	-6.35435
k	-6.37189
▁baru	-6.40155
▁ribu	-6.41744
▁kalo	-6.45599
▁udah	-6.45687
▁atau	-6.46074
▁dalam	-6.48547
▁terus	-6.49738
h	-6.50987
t	-6.5213
▁kosong	-6.54204
▁ku	-6.54559
▁banget	-6.55212
▁.	-6.55563
ku	-6.55845
▁ter	-6.56725
▁dapat	-6.58074
▁kalian	-6.58273
n	-6.58537
▁nol	-6.60182
e	-6.60903
▁menjadi	-6.61116
▁semua	-6.61531
▁gunung	-6.62061
▁punya	-6.62311
▁selalu	-6.63639
▁sangat	-6.64776
▁ingin	-6.65932
▁bukan	-6.6725
▁tau	-6.68398
▁tolong	-6.69058
▁korban	-6.69855
▁cek	-6.7254
▁lomba	-6.73324
▁seperti	-6.74939
▁kenapa	-6.75106
▁bayar	-6.75894
▁homecredit	-6.76189
▁dong	-6.76387
▁cicilan	-6.7681
▁masih	-6.78331
▁saja	-6.79118
▁pasti	-6.79218
lah	-6.80908
▁tahun	-6.83055
▁k	-6.83622
▁saat	-6.84475
▁bareng	-6.85221
▁kak	-6.85227
▁beli	-6.85586
▁pernah	-6.86404
▁sy	-6.86514
▁belum	-6.86624
▁sekali	-6.87612
▁seratus	-6.87816
▁menang	-6.87956
▁cara	-6.88263
▁ibu	-6.88732
▁barang	-6.88829
▁jalan	-6.89128
▁makan	-6.89867
▁rumah	-6.92108
▁jawabannya	-6.94576
▁pada	-6.95795
▁kami	-6.96241
▁bulan	-6.97023
▁c	-6.97913
▁biar	-6.98865
▁waktu	-6.99286
▁x	-7.0064
▁me	-7.01406
▁baik	-7.01577
▁bersama	-7.01732
▁tempat	-7.0229
▁hanya	-7.02449
▁pengen	-7.02613
▁lakukan	-7.02826
▁lain	-7.03571
▁sampai	-7.03834
▁kan	-7.03907
▁admin	-7.05637
g	-7.0637
l	-7.06563
▁sebagai	-7.08023
▁nih	-7.0923
▁e	-7.09555
▁tak	-7.11103
▁video	-7.11239
▁malam	-7.1155
▁no	-7.11821
d	-7.11915
▁pake	-7.12152
▁pinjaman	-7.13012
▁anak	-7.1388
▁langsung	-7.14012
▁tanpa	-7.14625
▁karna	-7.14793
▁uang	-7.15096
▁sambil	-7.1557
▁hal	-7.15948
▁bunga	-7.16184
▁gue	-7.16246
▁pas	-7.17382
▁tersebut	-7.17489
▁suka	-7.17678
▁sepuluh	-7.18299
▁m	-7.18827
▁anda	-7.21089
▁tas	-7.21751
▁jika	-7.2382
r	-7.23904
p	-7.24039
▁mereka	-7.24176
▁sih	-7.2459
m	-7.26286
▁hasil	-7.27833
▁sedang	-7.2786
▁kok	-7.2802
▁salah	-7.28078
u	-7.28285
▁hati	-7.29633
▁agar	-7.29705
▁pakai	-7.30205
▁rp	-7.30456
▁keluarga	-7.30529
▁siapa	-7.31567
▁sekarang	-7.31691
▁tp	-7.32627
▁setiap	-7.32675
pun	-7.3282
▁taman	-7.33016
▁teman	-7.33708
▁mungkin	-7.3452
mu	-7.35577
▁lalu	-7.3558
▁bismillah	-7.35673
▁gk	-7.35839
▁sendiri	-7.35936
y	-7.3599
▁padahal	-7.36461
▁tiap	-7.36474
▁handphone	-7.37016
▁gimana	-7.38222
▁yaitu	-7.38819
▁jg	-7.39158
▁bikin	-7.39626
▁baju	-7.40305
ng	-7.41359
▁setelah	-7.41455
▁oleh	-7.41499
▁pemenang	-7.41893
▁tlp	-7.43011
▁meng	-7.43327
▁alasan	-7.43571
▁mantan	-7.44187
▁rambut	-7.44431
▁hci	-7.44639
▁atas	-7.44871
▁men	-7.44912
▁sukses	-7.45001
▁malah	-7.45246
▁ternyata	-7.45641
makin	-7.45996
▁lah	-7.46162
▁pun	-7.4636
▁bu	-7.46724
▁paling	-7.47179
▁jam	-7.47256
▁dulu	-7.47503
▁membuat	-7.47586
▁klo	-7.47838
▁lupa	-7.48034
▁ig	-7.48788
▁foto	-7.49006
▁g	-7.49021
▁main	-7.49194
▁cuma	-7.49214
▁kerja	-7.49294
▁wa	-7.49304
▁lewat	-7.496
▁menurut	-7.49648
▁pantun	-7.50013
▁ambil	-7.50024
▁nanti	-7.50117
▁bagus	-7.51593
▁n	-7.51594
▁sampe	-7.52302
▁t	-7.52429
▁deh	-7.52585
▁selamat	-7.52772
▁udh	-7.52775
▁tentunya	-7.52782
▁menikmati	-7.53191
▁lama	-7.53465
▁jawaban	-7.53496
▁tuh	-7.53615
▁kota	-7.5431
▁guys	-7.54476
▁dapet	-7.54487
▁ikut	-7.54488
ya	-7.55199
▁para	-7.55427
▁hadiah	-7.55449
▁negara	-7.55557
▁masa	-7.56221
b	-7.5664
▁usaha	-7.56668
▁kasih	-7.5698
▁memiliki	-7.57431
▁dgn	-7.57519
▁done	-7.58192
▁pergi	-7.58412
▁samsung	-7.58542
▁laptop	-7.58574
▁celana	-7.59069
▁hantu	-7.59376
▁bagi	-7.59768
▁cantik	-7.6037
▁melihat	-7.60868
▁dana	-7.61591
▁dr	-7.61965
▁butuh	-7.62004
▁cukup	-7.62112
▁lunas	-7.62352
▁p	-7.62735
▁telpon	-7.63676
▁sya	-7.63704
al	-7.64593
▁naik	-7.64933
▁kepada	-7.65201
▁hidup	-7.6556
▁lg	-7.65985
▁giveaway	-7.66208
▁gw	-7.66546
▁mana	-7.66578
▁besar	-7.6679
▁merah	-7.67046
▁tetap	-7.67238
▁pulang	-7.67597
▁mudah	-7.67707
o	-7.67815
▁bagaimana	-7.67821
▁kopi	-7.68089
ri	-7.68149
▁pro	-7.6867
▁berhasil	-7.68713
▁diri	-7.6949
▁ayo	-7.69507
▁dear	-7.69991
▁noda	-7.70032
▁yaa	-7.70185
ah	-7.70629
▁smartphone	-7.70802
▁air	-7.70952
▁pertama	-7.71079
▁diatas	-7.71182
▁telat	-7.71356
▁pengajuan	-7.71659
▁serta	-7.71672
▁per	-7.71681
▁promo	-7.71762
▁serangga	-7.722
▁lihat	-7.72834
▁pocong	-7.73309
ta	-7.73885
▁gratis	-7.74159
▁nomor	-7.74444
▁wanita	-7.74444
▁baca	-7.74444
▁disini	-7.74444
▁pelaku	-7.74795
▁sehingga	-7.75306
▁terkenal	-7.75319
mohon	-7.75392
▁org	-7.75911
▁bawa	-7.76051
▁up	-7.76205
▁trus	-7.76206
▁bali	-7.76375
▁pembayaran	-7.77125
▁maju	-7.77357
▁destinasi	-7.77632
▁telah	-7.77705
▁boleh	-7.79141
▁i	-7.79646
▁mulai	-7.79717
▁tdk	-7.79732
▁pagi	-7.8095
▁aplikasi	-7.81046
▁pisau	-7.81231
▁gambar	-7.81231
kah	-7.81341
▁harga	-7.81378
▁bangsa	-7.81723
▁ka	-7.81965
▁terlihat	-7.8217
▁semangat	-7.82461
▁utk	-7.8277
▁apalagi	-7.8279
▁dp	-7.83126
▁harapan	-7.83325
▁follow	-7.8367
er	-7.83943
▁bilang	-7.84053
▁kerupuk	-7.84964
▁mu	-7.85009
▁coba	-7.85288
▁takut	-7.85346
▁beruntung	-7.856
▁bakal	-7.85964
c	-7.86162
▁bus	-7.8619
▁bgt	-7.86191
▁mendapatkan	-7.86336
▁makin	-7.86542
▁alam	-7.86547
▁liburan	-7.86666
▁kapan	-7.86885
z	-7.86903
▁pastinya	-7.86951
▁disana	-7.87535
▁lari	-7.8892
▁setan	-7.88981
▁angsuran	-7.89503
sa	-7.89508
▁ketemu	-7.89642
▁mem	-7.90147
▁an	-7.90151
▁note	-7.90235
▁cp	-7.90325
▁jt	-7.90718
▁kaya	-7.91256
▁f	-7.91511
▁liat	-7.91522
▁yah	-7.91604
di	-7.91914
▁y	-7.91979
▁xl	-7.92216
▁mengambil	-7.92535
▁depan	-7.92539
▁memang	-7.92909
▁kuburan	-7.93272
xis	-7.93558
▁tinggi	-7.93564
▁iphone	-7.93566
▁jatuh	-7.93912
▁minta	-7.93958
▁h	-7.94147
▁data	-7.943
▁jd	-7.94344
▁caranya	-7.9481
▁tepat	-7.94846
▁cepat	-7.95001
▁membantu	-7.95308
▁masyarakat	-7.95328
▁nah	-7.95335
f	-7.95559
na	-7.9562
▁membawa	-7.95662
▁indah	-7.96643
▁sebelas	-7.9673
▁terima	-7.96756
si	-7.97026
▁jelas	-7.97255
▁melakukan	-7.97442
▁maka	-7.97744
▁blm	-7.97798
▁bener	-7.98068
▁bahwa	-7.98159
▁weekend	-7.98159
▁sana	-7.98577
▁sering	-7.98577
▁keindahan	-7.98796
▁keren	-7.99021
▁kebutuhan	-7.9925
▁dimana	-7.99287
▁hape	-7.99544
▁kecil	-7.99938
▁nggak	-8.00142
▁online	-8.00352
▁jumat	-8.00353
▁datang	-8.0086
▁bermain	-8.01095
▁warna	-8.01474
▁eh	-8.0197
▁selain	-8.02248
▁ko	-8.02593
▁perlu	-8.03028
▁benar	-8.03736
▁masuk	-8.03951
▁horor	-8.04119
la	-8.04407
▁penting	-8.04898
▁ganti	-8.04956
▁emang	-8.05278
▁pekerjaan	-8.05696
▁tangan	-8.05699
▁sdh	-8.05705
▁gitu	-8.06061
ang	-8.06248
▁begitu	-8.0645
▁gua	-8.06541
▁juta	-8.0678
▁seribu	-8.06844
▁pura	-8.07227
▁buah	-8.07595
▁kayak	-8.07895
▁ngga	-8.08288
▁nge	-8.08421
▁murah	-8.08444
▁temen	-8.08475
▁bekas	-8.0852
▁cerita	-8.08716
▁kemerdekaan	-8.08835
▁botol	-8.09239
▁xiaomi	-8.09256
▁lo	-8.09436
aling	-8.09584
▁cari	-8.09632
▁tinggal	-8.09645
▁kue	-8.09735
▁biaya	-8.1007
▁dri	-8.10501
▁bs	-8.10568
w	-8.10724
▁pria	-8.1131
un	-8.11318
ketika	-8.11502
▁hi	-8.1152
▁museum	-8.11722
▁tanjung	-8.12108
▁mencintaimu	-8.12128
▁proses	-8.12138
▁muda	-8.1239
▁lu	-8.12569
▁ni	-8.12844
▁sehari	-8.129
▁kuntilanak	-8.12943
▁nama	-8.13054
▁selama	-8.13189
▁followers	-8.13436
▁sebelum	-8.13836
▁kembali	-8.1427
▁cafe	-8.14634
▁tsel	-8.1464
▁acc	-8.14666
▁kata	-8.14932
▁terbaik	-8.15069
▁amin	-8.1532
▁namanya	-8.15444
▁bank	-8.15616
▁sesuai	-8.15934
▁mata	-8.15968
▁pen	-8.16033
▁hutang	-8.16393
buah	-8.16509
▁jgn	-8.1666
▁katanya	-8.17165
▁krn	-8.17177
▁jasa	-8.17243
▁tolak	-8.17251
▁thre	-8.1766
▁kemudian	-8.17677
▁pencuri	-8.18122
▁hai	-8.18481
▁pemilik	-8.18996
▁beberapa	-8.19007
▁mending	-8.1901
ti	-8.19103
▁awal	-8.19153
▁rasa	-8.1943
▁membeli	-8.19438
▁allah	-8.19569
▁kotak	-8.19631
▁kuy	-8.19828
▁tarik	-8.20341
li	-8.20405
jak	-8.20816
▁tua	-8.21144
ar	-8.21238
▁pintu	-8.21246
▁aamiin	-8.2126
▁tabungan	-8.21339
▁pasir	-8.21492
▁screenshot	-8.21701
▁multiguna	-8.21702
▁info	-8.21877
▁pak	-8.22043
▁pilih	-8.22075
▁transaksi	-8.22621
▁bira	-8.22686
▁jawab	-8.23072
▁tanggal	-8.23137
▁impian	-8.23402
ra	-8.23431
▁mengganggu	-8.23549
▁mengikuti	-8.23549
▁putih	-8.23685
▁suami	-8.23872
▁aman	-8.23908
▁beda	-8.24047
▁kesempatan	-8.24056
▁turun	-8.24066
en	-8.2413
▁meja	-8.24145
bagai	-8.2445
▁mencuri	-8.24485
▁memberikan	-8.24672
▁teror	-8.24789
upaya	-8.24818
▁in	-8.24871
▁ngajuin	-8.24967
▁perusahaan	-8.24976
▁kurang	-8.24993
as	-8.25289
▁tgl	-8.25431
▁tahu	-8.25483
▁utang	-8.255
▁nyaman	-8.25597
▁luck	-8.25849
aa	-8.26312
▁tambang	-8.26386
▁respon	-8.26555
▁pe	-8.26564
▁buka	-8.26655
▁pulsa	-8.26866
▁menggunakan	-8.26872
▁jauh	-8.26956
▁sa	-8.27169
▁soalnya	-8.27216
▁dpt	-8.27607
▁maling	-8.27626
▁kuis	-8.27693
▁menjual	-8.27838
▁luar	-8.27868
▁lainnya	-8.28154
▁suara	-8.28329
▁tengah	-8.28388
▁segala	-8.28832
▁lancar	-8.28837
ing	-8.28923
▁cinta	-8.28981
▁secara	-8.29333
▁seorang	-8.29369
▁seru	-8.29632
▁saku	-8.29703
▁kesehatan	-8.29801
▁lombok	-8.29801
▁ganggu	-8.29821
▁pohon	-8.29833
▁rezeki	-8.29992
▁warga	-8.30303
re	-8.30483
dapat	-8.30821
▁pihak	-8.30875
ni	-8.31011
x	-8.31032
et	-8.31094
▁nonton	-8.31305
▁produk	-8.31374
▁biasa	-8.31516
▁v	-8.3168
▁maaf	-8.31808
▁j	-8.31974
▁syarat	-8.32063
▁nomer	-8.32326
▁nawarin	-8.32338
lu	-8.32422
bahkan	-8.32521
▁kuta	-8.32554
▁dg	-8.32766
ny	-8.32787
▁kunti	-8.32863
▁rb	-8.33024
▁nelpon	-8.33113
▁sepatu	-8.33336
▁panjat	-8.33337
▁kampung	-8.33389
▁rejeki	-8.33554
▁belanja	-8.33852
▁gmn	-8.34056
at	-8.34187
▁masalah	-8.34613
▁tu	-8.34663
▁motor	-8.34918
▁melalui	-8.35421
▁cerdas	-8.3544
▁r	-8.35441
▁kena	-8.35554
▁minuman	-8.35799
▁bukti	-8.35868
▁dunia	-8.35941
▁kedua	-8.35941
▁walau	-8.35953
▁cs	-8.3645
▁sini	-8.36462
▁penawaran	-8.3647
▁labu	-8.36496
▁terimakasih	-8.36497
▁sisirin	-8.36501
▁ny	-8.36715
▁susah	-8.37059
▁konsumen	-8.37259
▁pink	-8.37321
▁balas	-8.37383
▁tanya	-8.37425
▁hilang	-8.37551
▁sehat	-8.37559
▁pembiayaan	-8.37567
▁pemenangnya	-8.37996
▁oppo	-8.38078
▁investasi	-8.38089
▁usah	-8.38267
▁mulu	-8.38517
▁hingga	-8.38629
▁akhirnya	-8.387
▁film	-8.39712
▁donk	-8.398
▁bln	-8.4026
▁kamera	-8.40542
▁ingat	-8.40816
▁re	-8.4118
▁wish	-8.41366
j	-8.41456
de	-8.41716
▁u	-8.41986
▁iya	-8.42018
▁ketiga	-8.42483
▁email	-8.42488
▁bekerja	-8.43047
▁tempo	-8.43047
▁daerah	-8.43121
▁sm	-8.43281
▁tentang	-8.43619
▁ia	-8.43746
ga	-8.43823
▁siap	-8.44121
▁badan	-8.44278
▁mas	-8.44424
▁pencapaian	-8.44762
▁berbeda	-8.44762
▁mampu	-8.44762
▁mengajukan	-8.44765
▁berapa	-8.4482
▁dah	-8.45021
▁dipilih	-8.4534
▁segera	-8.45408
▁tiba	-8.45651
▁belajar	-8.45921
▁berwarna	-8.45921
▁menarik	-8.46556
▁hadiahnya	-8.46721
▁be	-8.46977
le	-8.47004
▁namun	-8.47094
▁jalanjalan	-8.47106
▁apapun	-8.4727
▁mari	-8.47479
▁solusi	-8.47484
▁bola	-8.47526
▁kontrak	-8.47547
▁loh	-8.47854
▁terakhir	-8.48289
▁id	-8.483
▁minggu	-8.48356
▁dll	-8.48495
▁istri	-8.48734
▁menjaga	-8.48884
▁terwujud	-8.4889
ha	-8.48974
▁bersih	-8.48986
am	-8.49421
▁habis	-8.49575
or	-8.49627
▁kk	-8.49645
▁merasakan	-8.49801
▁gb	-8.49938
▁instagram	-8.50087
▁negeri	-8.50089
▁alhamdulillah	-8.50092
▁gini	-8.50108
wa	-8.50401
se	-8.50443
▁to	-8.50511
▁pelanggan	-8.50698
on	-8.50834
▁w	-8.50848
▁sakit	-8.51322
▁bahagia	-8.51324
▁bioskop	-8.51351
▁keluar	-8.51423
▁bapak	-8.51973
▁bawah	-8.52257
▁sunset	-8.52376
▁bromo	-8.52556
▁al	-8.5259
▁so	-8.52707
▁mati	-8.53103
▁o	-8.53114
▁snorkeling	-8.53175
▁sekolah	-8.53176
▁bales	-8.5318
▁ktp	-8.53191
▁bantu	-8.53306
ru	-8.53402
▁bi	-8.53602
▁mah	-8.53683
▁modal	-8.53804
▁jaya	-8.53939
ma	-8.5419
▁pikiran	-8.54699
▁wah	-8.54798
ak	-8.54886
▁duit	-8.54894
▁gerimis	-8.55074
▁vivo	-8.55074
▁kantong	-8.55077
ut	-8.55188
te	-8.55361
▁kebetulan	-8.55715
▁telepon	-8.55717
▁becek	-8.5572
▁su	-8.5576
to	-8.55804
▁malem	-8.55815
▁tentu	-8.56215
▁te	-8.56294
▁pa	-8.56314
▁sopan	-8.56348
▁mempunya	-8.56364
▁pinang	-8.56364
▁penuh	-8.56374
▁daripada	-8.56385
▁ulang	-8.56506
▁tuhan	-8.56575
▁pelakunya	-8.56863
▁nasabah	-8.57009
▁mencari	-8.5701
▁perjuangan	-8.5701
▁diving	-8.5701
▁berenang	-8.57055
▁capture	-8.57097
▁ajak	-8.57274
▁ge	-8.57396
▁pahlawan	-8.57663
▁makanan	-8.57954
▁bang	-8.57988
▁telp	-8.58082
▁perasaan	-8.58173
▁keuangan	-8.58321
▁berlari	-8.58321
ba	-8.58419
▁versi	-8.58836
▁de	-8.59327
▁alat	-8.59755
▁tetapi	-8.59778
▁kiri	-8.59996
ll	-8.60078
suatu	-8.60091
▁rakyat	-8.60213
▁wisata	-8.60311
▁resolusi	-8.60321
▁nyicil	-8.60322
▁mendung	-8.60323
▁berjalan	-8.60346
▁jawa	-8.60504
▁melanjutkannya	-8.60685
▁na	-8.60892
▁berada	-8.61045
▁ra	-8.61257
▁ng	-8.61355
ka	-8.61947
ter	-8.62071
▁ri	-8.62134
▁akhir	-8.62274
▁customer	-8.62362
▁merdeka	-8.62409
▁cowok	-8.62444
v	-8.62463
▁siang	-8.62656
▁jakarta	-8.63052
▁kawan	-8.63109
▁bagian	-8.63403
▁the	-8.63688
▁happy	-8.63746
▁lipat	-8.63746
▁mendaki	-8.63746
▁berharap	-8.63762
▁ringan	-8.63768
▁akun	-8.6378
▁pulau	-8.63808
▁ditolak	-8.63821
us	-8.63869
▁trs	-8.63907
▁laut	-8.63967
▁biasanya	-8.64147
ngan	-8.64509
▁ad	-8.64556
▁mobil	-8.6515
▁badai	-8.65153
▁sedangkan	-8.65216
▁xi	-8.65754
▁dekat	-8.65862
▁tercinta	-8.65895
▁kantor	-8.65912
▁pelayanan	-8.65919
▁perlombaan	-8.6593
▁cewek	-8.65985
▁merasa	-8.6624
▁merobek	-8.66574
▁enak	-8.66607
▁amanah	-8.66642
▁gaes	-8.66665
▁kira	-8.66813
▁telfon	-8.67064
▁peng	-8.67089
▁pencurinya	-8.67148
▁mimin	-8.67298
▁line	-8.67429
▁kirim	-8.67593
mah	-8.67687
▁sayang	-8.67912
▁isi	-8.67976
▁genangan	-8.68018
▁sore	-8.68087
ed	-8.68188
▁jual	-8.68279
▁kenal	-8.68328
da	-8.68503
▁dapetin	-8.68742
▁duduk	-8.68783
▁kanan	-8.68907
▁tambah	-8.68968
ik	-8.69161
um	-8.69453
▁sebelah	-8.69491
▁komitmen	-8.69578
▁terganggu	-8.70223
▁panjang	-8.70228
uruh	-8.70246
ir	-8.70428
▁hehe	-8.70862
is	-8.70892
ran	-8.70955
▁pemandangan	-8.70969
▁menelpon	-8.7097
▁silahkan	-8.7098
▁dimasuk	-8.71017
▁jdi	-8.71707
▁bunganya	-8.71712
▁daftar	-8.72079
▁la	-8.72103
ja	-8.72418
▁percaya	-8.72433
▁merupak	-8.7248
mi	-8.72496
▁tenang	-8.72499
▁bls	-8.72539
▁berkali	-8.72544
ca	-8.72557
▁fa	-8.72751
▁tangga	-8.72813
st	-8.7282
▁minum	-8.73104
▁toko	-8.7312
▁bisnis	-8.73242
▁kesana	-8.73263
▁balap	-8.73264
▁meny	-8.73573
▁kunjungi	-8.73608
▁terutama	-8.74011
▁menit	-8.74088
▁dipantai	-8.74226
pura	-8.746
▁senang	-8.74864
it	-8.7499
▁kartu	-8.75571
▁marketing	-8.75582
▁sales	-8.75609
akan	-8.75787
▁hallo	-8.76025
▁kemungkinan	-8.76355
▁memilih	-8.76355
▁untung	-8.76361
▁sistem	-8.76367
▁seluruh	-8.76443
ong	-8.76535
▁pula	-8.76625
▁ma	-8.76705
▁z	-8.77034
▁halo	-8.77185
▁sosial	-8.77199
▁puncak	-8.77204
▁amat	-8.77638
▁gedung	-8.77949
▁btw	-8.7795
▁ngutang	-8.77952
▁kecewa	-8.77959
▁sibuk	-8.77988
▁keinginan	-8.77988
▁bebas	-8.78063
es	-8.78086
▁mi	-8.78324
▁via	-8.78343
asi	-8.78522
ul	-8.78669
▁kegiatan	-8.7877
▁free	-8.78779
▁mahal	-8.78851
▁tumpahan	-8.79028
▁pinjam	-8.79049
▁ide	-8.79381
▁sengaja	-8.79568
▁menawarkan	-8.79582
▁karung	-8.79594
▁sahabat	-8.79638
pe	-8.79721
▁tagihan	-8.79765
dar	-8.79811
▁malingnya	-8.80092
tan	-8.80107
moga	-8.8023
▁ribet	-8.80388
▁media	-8.80401
▁terjadi	-8.80415
▁lampu	-8.80427
▁moment	-8.80511
▁solusinya	-8.815
pa	-8.81543
▁demi	-8.81914
▁sampah	-8.82051
ju	-8.82056
ad	-8.8209
▁gunakan	-8.82415
lo	-8.82445
▁rasanya	-8.82704
▁adil	-8.82922
▁semuanya	-8.83403
▁co	-8.83767
▁antara	-8.83875
▁yakin	-8.84137
▁kelapa	-8.84591
▁hobi	-8.84632
▁macam	-8.84647
aaa	-8.84652
▁bis	-8.84826
▁sesuatu	-8.84892
ke	-8.85011
hi	-8.85412
▁bersyukur	-8.85452
▁permainan	-8.85452
▁terpilih	-8.85452
▁kucing	-8.85453
▁perbedaan	-8.85462
▁terlalu	-8.8547
hampir	-8.85511
▁siapapun	-8.85761
▁setia	-8.8628
▁rusak	-8.86383
gi	-8.86607
▁km	-8.86681
ai	-8.86759
▁terdekat	-8.87199
▁pendidikan	-8.87199
▁fotofoto	-8.87234
▁besok	-8.87242
▁postingan	-8.8736
▁l	-8.87409
san	-8.87562
bu	-8.87619
▁prn	-8.87756
gong	-8.87909
▁knp	-8.87914
▁kaki	-8.87921
ko	-8.88024
▁my	-8.88144
▁kedalam	-8.88158
▁mantap	-8.88207
▁salam	-8.88216
▁indahnya	-8.88291
▁niat	-8.88296
▁blum	-8.88977
▁mbak	-8.89149
me	-8.89195
▁jualan	-8.89649
▁transfer	-8.89878
▁mencurigakan	-8.89878
▁tuyul	-8.89885
▁riba	-8.89904
▁rate	-8.89905
▁balik	-8.90464
ch	-8.90613
▁mengabadikan	-8.90787
▁share	-8.90787
▁kemarin	-8.90807
hh	-8.90914
▁st	-8.91382
aldo	-8.91387
▁doa	-8.91535
▁dahulu	-8.91704
▁miliar	-8.91704
▁tetep	-8.91704
▁bandung	-8.91746
▁bolong	-8.91765
▁pengumuman	-8.91823
▁utama	-8.91927
▁masak	-8.92194
▁ah	-8.92285
▁memaka	-8.92506
▁kehidupan	-8.9263
▁kuliner	-8.9263
▁mo	-8.92651
▁ikan	-8.9266
▁tadi	-8.92783
du	-8.92848
▁berpura	-8.9285
▁le	-8.92901
▁gaji	-8.93276
▁berat	-8.93319
▁lengkap	-8.93422
▁anya	-8.93424
▁contact	-8.93565
▁iklan	-8.93565
▁menunggu	-8.93571
▁gila	-8.93698
▁diberikan	-8.93747
ur	-8.9381
▁nilai	-8.93819
▁parah	-8.94059
▁sms	-8.94137
▁memberi	-8.94329
ro	-8.94382
▁cm	-8.94529
▁atm	-8.94641
▁es	-8.94712
▁nanya	-8.94739
bi	-8.95304
▁sedikit	-8.95461
▁mengadakan	-8.95461
▁tidur	-8.95461
▁and	-8.95466
▁tanah	-8.95473
▁berdiri	-8.95522
▁nagih	-8.95608
▁pilihan	-8.95639
▁celananya	-8.95702
▁seke	-8.96063
▁sang	-8.9607
▁jaman	-8.96157
▁wkwk	-8.96192
▁ditelpon	-8.96202
▁sebelumnya	-8.96307
▁li	-8.9639
▁berusaha	-8.96422
▁kapok	-8.96426
▁mengajak	-8.96433
▁anakanak	-8.9644
▁go	-8.96715
▁uda	-8.96751
▁curian	-8.96836
ok	-8.96936
▁saudara	-8.97393
▁abis	-8.97405
▁nunggu	-8.97419
▁lapangan	-8.97436
▁gatau	-8.97548
▁sekitar	-8.97558
▁memper	-8.9774
ana	-8.98112
▁bersejarah	-8.98373
▁hemat	-8.98376
▁pemimpin	-8.98377
▁ngambil	-8.98415
▁yukk	-8.98424
▁gede	-8.9852
ki	-8.98966
▁cuman	-8.99028
ap	-8.99067
▁kek	-8.99118
▁sadar	-8.99206
▁berkembang	-8.99364
▁suasana	-8.99364
▁kerumah	-8.99364
▁bingung	-8.99364
ee	-8.99368
▁call	-8.99369
▁mawar	-8.9937
▁khusus	-8.99389
ol	-8.99484
▁doang	-8.99524
▁tujuan	-8.99604
▁sekalian	-8.99633
▁ja	-8.99655
tu	-8.99706
do	-8.99759
▁yaaa	-8.9981
▁berkah	-8.99965
▁makanya	-9.00004
uu	-9.00161
▁kuat	-9.00222
▁convert	-9.00364
▁menyenangkan	-9.00364
▁pengeluaran	-9.00364
▁menenangkan	-9.00364
▁damai	-9.00364
▁belakang	-9.0052
▁pdh	-9.00533
▁ombak	-9.00575
▁com	-9.00599
el	-9.01291
▁manusia	-9.01367
▁sejarah	-9.01374
▁kadang	-9.01627
▁as	-9.01676
▁tri	-9.01734
▁komen	-9.01786
▁bro	-9.02394
▁tunggu	-9.02402
▁give	-9.0242
im	-9.02462
▁aktif	-9.0249
▁kalah	-9.02793
▁lanjut	-9.02967
▁momen	-9.0329
▁membutuhkan	-9.03425
▁mencapai	-9.03425
▁tukang	-9.03448
tik	-9.03713
▁digunakan	-9.03736
ce	-9.03816
▁hasilnya	-9.03889
▁lho	-9.04072
▁yu	-9.04198
▁menu	-9.04243
ber	-9.04256
▁elektronik	-9.04467
▁menjawab	-9.04467
▁tenor	-9.0447
▁dimakan	-9.0448
▁desa	-9.04541
▁dibawa	-9.04553
su	-9.04818
▁kedepannya	-9.04892
▁alasannya	-9.05305
▁meski	-9.0552
▁ngajak	-9.05546
▁selesai	-9.05563
▁jiwa	-9.05587
▁dibawah	-9.05671
▁aneh	-9.05721
▁mewujudkan	-9.05768
oo	-9.0585
▁pasar	-9.05992
ss	-9.06128
lan	-9.06132
ps	-9.06231
fi	-9.06294
▁engga	-9.06411
▁oke	-9.06418
▁gara	-9.06534
▁kuliah	-9.06583
▁gagal	-9.06596
▁informasi	-9.06596
▁konfirmasi	-9.06598
▁laki	-9.06603
▁fast	-9.06609
▁selfie	-9.06662
▁th	-9.06955
iii	-9.07259
▁hubungi	-9.07518
▁brp	-9.07573
▁cai	-9.07589
▁flexifast	-9.07658
▁berarti	-9.07692
▁terlebih	-9.07696
ii	-9.07791
msh	-9.07958
▁mengena	-9.08064
▁da	-9.08075
▁pacar	-9.08504
uk	-9.08508
▁datangi	-9.08528
▁horror	-9.08745
▁sungguh	-9.08745
▁diteror	-9.08746
▁kejadian	-9.08746
▁udara	-9.08784
▁denda	-9.08961
atur	-9.09034
bo	-9.09155
▁soal	-9.09184
▁muka	-9.09185
ek	-9.09397
▁nga	-9.09792
▁penghasilan	-9.09844
▁tsb	-9.09853
▁kancing	-9.09855
▁cocok	-9.09856
▁super	-9.09857
▁mandiri	-9.09872
▁wajib	-9.09873
▁dikejar	-9.09983
▁dapatkan	-9.10081
mp	-9.10532
kin	-9.10577
▁dilihat	-9.10617
ji	-9.1094
▁please	-9.10955
▁positif	-9.10955
▁jujur	-9.10956
▁acara	-9.11059
▁kah	-9.11514
ung	-9.11556
▁jaga	-9.11577
po	-9.12009
megang	-9.12067
▁tkp	-9.1208
▁giliran	-9.12084
▁skrg	-9.12086
▁minat	-9.12142
▁away	-9.1219
▁raya	-9.12247
▁agustus	-9.12688
▁hpnya	-9.12711
uju	-9.12718
▁on	-9.12745
▁kehilangan	-9.13215
▁pribadi	-9.13215
▁ojk	-9.13215
▁pusat	-9.13215
▁keperluan	-9.13216
▁plus	-9.13216
▁lakuin	-9.13358
no	-9.13584
▁angkat	-9.13693
nt	-9.14143
▁janji	-9.14365
▁hitam	-9.1437
▁matahari	-9.14388
▁tv	-9.14458
▁jari	-9.14723
▁adanya	-9.15092
▁itulah	-9.15135
ling	-9.15266
▁hc	-9.15347
▁ketupat	-9.15528
▁pelunasan	-9.15528
▁seseorang	-9.15528
▁pusing	-9.15528
▁timur	-9.15535
▁nikah	-9.15711
▁berikan	-9.15759
▁buruan	-9.15936
ge	-9.1594
▁bulu	-9.16273
▁tisu	-9.16715
▁asli	-9.16738
▁antar	-9.1674
▁dlm	-9.16754
▁etika	-9.16775
▁berhenti	-9.16778
▁kl	-9.16797
▁cicil	-9.16805
▁you	-9.17093
▁ne	-9.17159
▁mel	-9.17373
▁penipu	-9.17376
▁mb	-9.17443
▁berselancar	-9.17894
▁menabrak	-9.17894
▁karyawan	-9.17901
▁layak	-9.18278
▁sisa	-9.18431
eng	-9.18718
▁gigi	-9.18955
▁berpetualang	-9.191
▁penjual	-9.19103
▁sobat	-9.19124
▁sebenarnya	-9.19133
▁makasih	-9.19158
▁bersatu	-9.19169
▁wajah	-9.19651
kk	-9.19662
il	-9.19697
▁gmna	-9.19836
bur	-9.19885
▁sma	-9.20113
bel	-9.20247
▁menabung	-9.20319
▁ovo	-9.20319
▁berkunjung	-9.20319
▁diskon	-9.2032
▁ajukan	-9.20321
▁mall	-9.2045
▁malu	-9.20505
▁dilakukan	-9.20564
bar	-9.20624
▁cair	-9.20676
tor	-9.21023
em	-9.21027
man	-9.21236
▁kau	-9.21353
▁aj	-9.21356
▁guna	-9.21378
▁tissu	-9.21416
▁jogging	-9.21553
▁sunrise	-9.21553
▁imlek	-9.21555
▁nyesel	-9.21555
▁berbagi	-9.21623
▁manis	-9.21667
hhh	-9.21794
samsung	-9.22065
▁pasirnya	-9.22486
▁mendapat	-9.22577
▁all	-9.2269
gung	-9.22713
ci	-9.22762
▁generasi	-9.22803
▁angpao	-9.22803
▁tepung	-9.22803
▁gampang	-9.22807
▁pengalaman	-9.22836
▁didalam	-9.23083
▁wrn	-9.2318
▁segar	-9.2328
▁pikir	-9.2364
▁tpi	-9.2372
▁ombaknya	-9.23804
▁arah	-9.23861
pan	-9.23917
▁lumayan	-9.24069
▁posisi	-9.24076
▁bri	-9.24079
▁cuci	-9.24112
▁keluhan	-9.24131
▁pemuda	-9.24204
▁mama	-9.24278
▁catat	-9.24315
▁mimpi	-9.24347
▁paku	-9.24564
▁ala	-9.24699
▁situ	-9.25077
▁ketentuan	-9.25351
▁rekening	-9.25352
▁semur	-9.25362
isi	-9.25372
▁komplek	-9.25386
▁batu	-9.25389
▁lingkungan	-9.25395
▁berjuang	-9.25395
▁cita	-9.25508
▁fat	-9.25554
▁mauu	-9.25921
▁pokoknya	-9.25981
go	-9.26194
▁kerjaan	-9.26307
▁telponin	-9.26499
▁ta	-9.265
▁perhatian	-9.2665
▁menyentuh	-9.2665
▁nabung	-9.2665
▁nampak	-9.2665
▁helm	-9.2665
▁dirumah	-9.26651
▁kawat	-9.26655
▁kenangan	-9.26697
▁penagihan	-9.27229
pink	-9.27292
saat	-9.27326
▁ama	-9.27417
eramai	-9.27509
▁bo	-9.27708
▁mencintai	-9.27902
uy	-9.27923
wan	-9.27958
▁korupsi	-9.27966
▁tercapai	-9.27966
▁disitu	-9.27968
▁rendang	-9.27972
▁angin	-9.27977
▁tuhh	-9.27981
▁kyak	-9.28004
rlewatkan	-9.2801
▁bermanfaat	-9.2801
▁nginap	-9.28028
▁bca	-9.28402
▁krna	-9.28412
▁adik	-9.28707
▁buku	-9.28865
nn	-9.2887
lang	-9.28952
▁kontak	-9.29299
▁telkomsel	-9.29299
▁menghilang	-9.29303
▁membayar	-9.29307
▁like	-9.29322
▁kemana	-9.29367
▁agak	-9.29428
▁ujung	-9.29474
▁keras	-9.29479
tika	-9.29483
▁sunsetnya	-9.29678
▁is	-9.29857
halus	-9.29918
▁ti	-9.29945
▁mer	-9.30009
co	-9.30122
▁memasuk	-9.30136
pi	-9.30246
▁begini	-9.3065
▁merinding	-9.3065
▁bgus	-9.30651
▁dijamin	-9.30653
▁opor	-9.3066
▁segitiga	-9.30666
▁terasa	-9.30668
▁entah	-9.30681
▁mengapa	-9.30711
ban	-9.30739
▁asal	-9.30943
▁ngomong	-9.31196
▁pem	-9.31363
▁bila	-9.31558
id	-9.31609
▁putihnya	-9.31618
▁bulukumba	-9.3202
▁penjahat	-9.3202
▁menelepon	-9.32021
▁terpercaya	-9.32043
▁kesukaanku	-9.32063
▁prg	-9.32132
▁bau	-9.32137
▁it	-9.32263
▁gulai	-9.32307
▁presiden	-9.32597
▁bni	-9.32732
▁kakak	-9.32768
ay	-9.32845
▁daya	-9.32943
uh	-9.33309
za	-9.33314
▁tertarik	-9.33409
▁referensi	-9.33413
kuat	-9.33472
▁ngak	-9.33587
▁thn	-9.33593
▁dng	-9.33778
ngettt	-9.33871
▁dikasih	-9.34082
dis	-9.34216
▁order	-9.34292
tiba	-9.34517
▁ci	-9.34734
▁slide	-9.34818
▁terbaru	-9.34818
▁menambah	-9.34819
▁persatuan	-9.34894
▁tl	-9.3519
▁sate	-9.35517
▁medan	-9.35521
▁wi	-9.35886
lias	-9.3593
ih	-9.36144
be	-9.36174
▁berlibur	-9.36246
▁otak	-9.36246
▁selanjutnya	-9.36298
▁sedih	-9.36301
▁urusan	-9.36955
ly	-9.37012
mo	-9.37041
▁sendirian	-9.3717
▁diper	-9.37308
sih	-9.37391
hari	-9.37546
▁memulai	-9.37695
▁menghargai	-9.37695
▁screenshoot	-9.37696
▁kasus	-9.37696
▁sekaligus	-9.37696
▁penari	-9.37696
▁sumpah	-9.37699
▁barat	-9.37707
▁serem	-9.37776
▁terbang	-9.37781
▁kamar	-9.37831
▁logo	-9.37856
▁melanjutkan	-9.38387
▁bos	-9.38458
▁ro	-9.39112
▁memeriahkan	-9.39166
▁merayakan	-9.39166
▁good	-9.39166
▁mencoba	-9.39166
▁tetangga	-9.39166
▁dilarang	-9.39166
▁tubuh	-9.3917
▁budaya	-9.39177
fa	-9.39335
kar	-9.39498
bat	-9.39759
▁nelponin	-9.39823
▁oh	-9.39896
▁tr	-9.39959
▁nenek	-9.40516
▁nasional	-9.40657
▁bertambah	-9.40659
▁gadget	-9.40659
▁senyum	-9.40659
▁belom	-9.40661
▁santai	-9.40667
▁tanda	-9.40694
▁hukum	-9.4072
rah	-9.40743
▁sebab	-9.40746
rat	-9.40824
tt	-9.40869
▁he	-9.40885
▁dijual	-9.4095
▁garam	-9.41032
▁ru	-9.41041
uuu	-9.41367
▁pinjem	-9.41627
▁tasnya	-9.4177
ati	-9.41861
▁sh	-9.42044
▁meninggal	-9.42174
▁menerus	-9.42177
▁area	-9.42218
▁burung	-9.42246
▁padang	-9.4247
▁jawabanya	-9.4253
masuk	-9.42789
dengar	-9.42907
▁misal	-9.42914
▁menurutku	-9.43156
▁terkena	-9.43276
▁tumpah	-9.43342
lam	-9.43389
▁favorit	-9.43572
▁temanteman	-9.43617
▁aktivitas	-9.43712
▁meningkat	-9.43712
▁dibilang	-9.43713
▁emak	-9.4374
▁kepala	-9.43746
▁anjing	-9.43768
▁mengisi	-9.43808
▁maksa	-9.43816
▁galaxy	-9.43847
▁join	-9.4385
▁sejahtera	-9.43871
▁bentuk	-9.43892
▁buruk	-9.43898
gan	-9.4475
han	-9.44798
ram	-9.44825
▁toilet	-9.45275
▁ditemukan	-9.45275
▁wilayah	-9.45285
▁seharihari	-9.45307
▁ngobrol	-9.45363
▁uangnya	-9.45364
▁mesin	-9.45369
▁buru	-9.45463
▁berani	-9.45471
yy	-9.45555
▁sd	-9.45674
ali	-9.4629
ring	-9.46675
▁cewe	-9.46694
▁rt	-9.46739
gu	-9.46743
set	-9.46784
▁ch	-9.46794
▁pidato	-9.46862
▁terhadap	-9.46862
▁zaman	-9.46862
▁link	-9.4687
▁potongan	-9.46874
▁diambil	-9.46901
▁nice	-9.46908
▁tunai	-9.46931
▁penat	-9.46955
▁beban	-9.47044
aan	-9.47109
▁pencurian	-9.47121
ngasih	-9.47589
▁persyaratan	-9.47661
▁masukin	-9.47816
mb	-9.48053
ara	-9.48059
▁woy	-9.48366
▁hoax	-9.48475
▁pancong	-9.48475
▁tokopedia	-9.48493
▁lagu	-9.48538
▁asik	-9.48564
▁klik	-9.48606
▁marah	-9.48659
▁dibelakang	-9.48931
▁sp	-9.48953
▁mba	-9.48991
▁kon	-9.49067
▁pokok	-9.49332
▁nye	-9.49536
▁libur	-9.49597
▁kabar	-9.49626
yz	-9.49707
rasa	-9.49762
▁for	-9.49773
▁sepi	-9.50028
▁memenuhi	-9.50114
▁pariwisata	-9.50114
▁pinggir	-9.50114
▁kasar	-9.50116
▁asyik	-9.5017
▁limit	-9.50211
▁bangga	-9.50264
▁ss	-9.50309
▁batas	-9.50472
ercak	-9.50486
▁pasangan	-9.50515
▁chat	-9.50523
vi	-9.50715
▁disuru	-9.51155
men	-9.51241
▁rencana	-9.51376
▁po	-9.51377
▁saran	-9.51466
▁pu	-9.51469
▁kece	-9.51533
las	-9.51602
▁dompet	-9.51781
▁ekonomi	-9.51781
▁flexi	-9.51781
▁jahat	-9.51782
▁nambah	-9.51787
▁lilin	-9.51788
▁jarang	-9.5179
▁program	-9.51793
▁dingin	-9.51814
▁masing	-9.51883
▁multi	-9.51891
▁usia	-9.51902
▁bahan	-9.51906
▁bantuan	-9.52463
▁hahaha	-9.52464
▁paket	-9.52477
ks	-9.52613
▁ar	-9.52725
dak	-9.52775
▁pesan	-9.52945
▁pi	-9.53146
annya	-9.53188
▁api	-9.53444
▁internet	-9.53476
▁mendukung	-9.53476
▁olahraga	-9.53476
▁kafe	-9.53493
▁payung	-9.53524
▁pemerintah	-9.53546
▁betul	-9.53617
▁je	-9.53913
so	-9.54199
uan	-9.54211
tau	-9.54571
▁ho	-9.54695
hu	-9.54712
▁ki	-9.54967
▁nyata	-9.54979
▁satunya	-9.55123
▁ciptaan	-9.552
▁kualitas	-9.552
▁wajar	-9.552
▁kesini	-9.55201
▁dinding	-9.55203
▁hub	-9.55212
ris	-9.55229
▁lengan	-9.55234
▁berlaku	-9.55258
▁hatihati	-9.55259
▁tangannya	-9.55286
▁luas	-9.5531
▁milik	-9.55513
▁rame	-9.55916
▁misalnya	-9.56108
▁hr	-9.56139
nda	-9.56644
▁curiannya	-9.56651
▁ditanya	-9.56651
▁miliki	-9.56669
ck	-9.56695
▁by	-9.56747
▁ha	-9.56748
▁ok	-9.56878
▁dedemit	-9.56954
▁pertanyaan	-9.56954
▁perjalanan	-9.56954
▁trusted	-9.56955
▁berdoa	-9.56955
▁musik	-9.56955
▁melayani	-9.56955
▁april	-9.56955
▁membangun	-9.56962
▁cowo	-9.56978
▁berdua	-9.56979
▁muncul	-9.57014
▁bakar	-9.57168
▁pos	-9.57215
▁ramai	-9.57224
nta	-9.57243
▁man	-9.57256
ampur	-9.5732
▁haha	-9.57387
▁tlpn	-9.57491
jam	-9.57647
tukar	-9.57695
▁lgi	-9.57708
hal	-9.57715
sss	-9.57716
▁pan	-9.57824
▁penjelasan	-9.57913
▁sepertinya	-9.57934
▁om	-9.57985
bang	-9.5822
▁lapor	-9.58356
ding	-9.58417
rt	-9.58426
▁kliwon	-9.5874
▁peralatan	-9.5874
▁tantangan	-9.5874
▁fokus	-9.5874
▁dasar	-9.5874
▁seneng	-9.58741
▁fasilitas	-9.58741
▁stop	-9.58787
▁makmur	-9.58828
▁sulit	-9.58828
▁red	-9.58912
▁top	-9.59588
bl	-9.60048
▁berupa	-9.601
▁hut	-9.60149
▁awalnya	-9.60177
▁dikit	-9.6033
▁nur	-9.60336
▁ceritanya	-9.60534
▁jodoh	-9.60558
▁ditambah	-9.60559
▁inget	-9.60559
▁robek	-9.60564
▁mahasiswa	-9.6057
▁lucu	-9.60576
▁payah	-9.60586
▁senja	-9.60604
▁kyk	-9.60618
▁slalu	-9.60626
▁canggih	-9.60634
▁sebulan	-9.60644
▁rajin	-9.60675
▁komentar	-9.60737
orang	-9.60744
apa	-9.60827
nd	-9.60828
wi	-9.60929
▁tugas	-9.60936
eee	-9.60973
▁hutan	-9.60974
▁real	-9.61039
teman	-9.61251
ne	-9.61325
▁memasukan	-9.61369
▁hak	-9.61429
▁pr	-9.61443
▁klu	-9.61478
rus	-9.61569
▁lokasi	-9.61593
tr	-9.61656
yang	-9.61842
▁menye	-9.61861
dit	-9.61861
bagian	-9.61957
▁genderuwo	-9.6241
▁hobby	-9.6241
▁kondisi	-9.6241
▁sementara	-9.6241
▁terpecaya	-9.6241
▁pemudi	-9.6241
▁tajam	-9.6242
▁mitra	-9.62422
▁layanan	-9.62456
▁whatsapp	-9.62459
▁alamat	-9.6257
▁kepantai	-9.62608
▁syukur	-9.62612
▁ayah	-9.62632
▁menjadikan	-9.62651
rak	-9.62775
▁artinya	-9.62819
▁tuk	-9.62908
ani	-9.62948
▁smpe	-9.63072
▁ak	-9.63123
▁gu	-9.63146
www	-9.63269
▁harapanku	-9.63271
rr	-9.63441
▁putus	-9.63442
▁kuisnya	-9.63625
▁ce	-9.63975
dang	-9.64002
up	-9.64019
▁nelfon	-9.64074
aaaa	-9.64118
▁kta	-9.64162
▁lunasin	-9.6417
▁perempuan	-9.64297
▁target	-9.64297
▁kenyataan	-9.64297
▁berseri	-9.64297
▁kayaknya	-9.64314
▁cepet	-9.64318
▁best	-9.64352
▁sederhana	-9.64361
▁jumlah	-9.6439
▁tissue	-9.64508
▁lahir	-9.64635
▁suku	-9.64726
▁nikmat	-9.64971
▁seram	-9.65274
ting	-9.65456
▁nikmati	-9.65693
nti	-9.65824
▁diberi	-9.6586
▁mikir	-9.65998
▁ditlp	-9.66174
▁asuransi	-9.6622
▁menghubungi	-9.6622
▁rehat	-9.6622
▁membuka	-9.66229
▁unik	-9.66234
▁semarang	-9.66257
je	-9.66287
▁kado	-9.66299
▁full	-9.663
os	-9.66327
▁ane	-9.66377
▁tawaran	-9.66403
▁byr	-9.66417
▁time	-9.66491
bila	-9.66548
kali	-9.66588
▁mar	-9.66672
▁dibayar	-9.6668
▁laptopnya	-9.66767
▁ditengah	-9.66795
▁dlu	-9.67149
▁nantinya	-9.67333
▁kedepan	-9.67337
he	-9.67426
▁tambahan	-9.67588
ia	-9.67742
▁jajan	-9.67775
mana	-9.68041
▁waktunya	-9.68041
▁event	-9.68181
▁lingkaran	-9.68181
▁nunggak	-9.68181
▁surabaya	-9.68181
▁hijau	-9.68181
▁sepeda	-9.68181
▁umur	-9.68182
▁listrik	-9.68182
▁kesatuan	-9.68183
▁move	-9.6819
▁bdn	-9.68207
▁tersangka	-9.68216
▁ehh	-9.6825
▁kemaren	-9.68281
▁benda	-9.68286
▁tali	-9.68293
▁pegang	-9.68307
▁say	-9.68364
pu	-9.68379
▁putri	-9.68431
▁seakan	-9.68814
ooo	-9.6918
▁nyari	-9.69346
▁berikut	-9.69442
▁do	-9.69449
▁menj	-9.69513
jadikan	-9.69557
▁umum	-9.69566
▁nlp	-9.70012
▁kutu	-9.70032
▁bendera	-9.70181
▁perbelanjaan	-9.70181
▁tariktarik	-9.70181
▁kelahiran	-9.70181
▁ilmu	-9.70182
▁santun	-9.70182
▁berubah	-9.70183
▁bertemu	-9.70211
▁mandi	-9.70294
▁mr	-9.70633
▁br	-9.7096
ina	-9.7113
▁ketan	-9.7114
▁bsa	-9.71263
▁kuduk	-9.71283
▁hubungan	-9.71407
▁mn	-9.71435
▁bumi	-9.71637
ab	-9.7193
▁menyimpan	-9.72222
▁tertawa	-9.72222
▁kepercayaan	-9.72222
▁dicuri	-9.72226
▁mantul	-9.72227
▁hebat	-9.72233
▁disaku	-9.72238
▁new	-9.72372
▁inginkan	-9.72441
▁ac	-9.72458
▁jaminan	-9.72483
dan	-9.72764
ayaan	-9.72795
▁abang	-9.72834
▁hehehe	-9.72849
▁dn	-9.7285
ahkan	-9.72918
▁vi	-9.72999
ns	-9.73328
▁https	-9.7333
▁ap	-9.73401
▁doi	-9.7388
▁bangun	-9.73969
iaomi	-9.74227
▁youtube	-9.7423
▁gebetan	-9.74305
▁jendela	-9.74305
▁terlambat	-9.74305
▁mengunjungi	-9.74305
▁kebahagiaan	-9.74305
▁kisah	-9.74305
▁bulat	-9.74307
▁keliatan	-9.74307
▁tanggung	-9.74308
▁membaca	-9.7431
▁kaga	-9.74319
▁memanfaatkan	-9.74319
▁berpikir	-9.74335
▁dh	-9.74339
▁telemarketing	-9.74345
▁emas	-9.74361
▁biru	-9.74375
▁sempat	-9.74378
▁sesama	-9.74393
▁menyedi	-9.7445
▁ditawarin	-9.74508
▁seolah	-9.7451
cak	-9.74528
▁mengu	-9.74655
▁xx	-9.74664
▁ialah	-9.74722
▁beri	-9.74799
▁kumpul	-9.75025
oro	-9.75234
▁wow	-9.7538
▁rek	-9.75471
mba	-9.75507
tahun	-9.75511
awan	-9.75521
ver	-9.75566
rasi	-9.75681
▁harimau	-9.75698
▁maksud	-9.75715
▁harap	-9.75728
▁persen	-9.75936
kit	-9.75954
dy	-9.76041
▁paham	-9.76124
▁awan	-9.76162
▁berminat	-9.76433
▁dipakai	-9.76433
▁penerus	-9.76433
▁pecah	-9.76433
▁eror	-9.76434
▁tiada	-9.7644
▁lompat	-9.76442
▁karana	-9.76447
▁menghabis	-9.76459
▁angka	-9.76472
▁ntar	-9.76472
▁intinya	-9.76587
▁galau	-9.766
▁pke	-9.76627
▁nak	-9.7665
▁nik	-9.76666
▁we	-9.76713
▁sk	-9.76813
lh	-9.76957
▁ck	-9.77086
tur	-9.77104
▁masukan	-9.77177
▁fb	-9.77217
▁tim	-9.77338
ttp	-9.77432
om	-9.77612
▁koin	-9.77789
▁promosi	-9.7787
▁tindak	-9.78084
▁nan	-9.78296
baju	-9.78481
▁hujan	-9.78606
▁jilbab	-9.78606
▁memudahkan	-9.78607
▁story	-9.78607
▁menerima	-9.78627
▁bidang	-9.78631
▁list	-9.78647
▁gabung	-9.78665
▁dic	-9.78675
▁kabur	-9.78682
▁males	-9.78702
▁berangkat	-9.78718
▁us	-9.78738
▁homekredit	-9.78744
▁homecreditid	-9.788
▁capek	-9.79105
▁pandang	-9.79138
▁amiin	-9.79643
jo	-9.79866
ker	-9.80038
karena	-9.80099
rang	-9.80192
duk	-9.8059
▁post	-9.80598
▁cu	-9.80654
▁baris	-9.80794
▁teknologi	-9.80829
▁terpenting	-9.80829
▁komplain	-9.8083
▁mampir	-9.80831
▁hapus	-9.80832
▁menganggu	-9.80832
▁juara	-9.80835
▁mengurangi	-9.8084
▁praja	-9.80844
▁seminggu	-9.80864
▁jejak	-9.80865
▁jomblo	-9.8087
▁cash	-9.80875
▁follower	-9.80928
▁pingin	-9.80953
▁kagak	-9.81037
▁nenekku	-9.81043
ayu	-9.81161
▁bukannya	-9.8125
▁layarnya	-9.81347
▁nasi	-9.81448
eh	-9.81694
min	-9.8173
ampe	-9.81877
▁diangkat	-9.81916
hasil	-9.82195
itas	-9.82318
▁love	-9.82381
▁mukanya	-9.82485
▁bat	-9.82619
▁tepi	-9.82745
▁ciritab	-9.83101
▁jadul	-9.83101
▁khawatir	-9.83101
▁menyeramkan	-9.83101
▁nongkrong	-9.83101
▁sundel	-9.83101
▁adegan	-9.83102
▁menghasilkan	-9.83102
▁sikorban	-9.83102
▁melepas	-9.83103
▁meraih	-9.83105
▁kelihatan	-9.83105
▁lepas	-9.83107
▁kangen	-9.83115
▁susu	-9.83134
▁bukit	-9.83173
▁gimna	-9.83206
▁darah	-9.8323
▁kreatif	-9.8323
▁jenis	-9.83236
▁ramah	-9.83259
war	-9.8327
▁sabar	-9.83306
▁hrs	-9.83333
▁mengi	-9.83455
kn	-9.83534
▁shop	-9.83619
▁dona	-9.83848
tas	-9.83926
▁olah	-9.84221
▁pol	-9.84294
▁of	-9.84529
tus	-9.84634
luk	-9.84826
▁hias	-9.84893
▁tagih	-9.84989
▁jng	-9.85026
▁bak	-9.85096
ff	-9.8526
lihat	-9.8527
▁member	-9.85308
▁berkualitas	-9.85427
▁total	-9.85428
▁mlm	-9.85428
▁passing	-9.85428
▁keadaan	-9.8543
▁jeruk	-9.8543
▁memasak	-9.85436
▁skrng	-9.85436
▁serba	-9.85441
▁year	-9.85448
▁bulanan	-9.85514
▁agama	-9.85572
▁thanks	-9.85579
▁bekal	-9.85627
▁tunggakan	-9.85635
▁gelap	-9.85656
▁ab	-9.85663
iiii	-9.85781
▁mengingatkan	-9.85798
▁gaya	-9.85838
hak	-9.85941
▁ditelponin	-9.85985
▁bangunan	-9.86031
▁langkah	-9.86037
▁kkn	-9.86096
▁maksimal	-9.86221
ita	-9.86229
▁awas	-9.86378
▁cicilannya	-9.86451
dah	-9.8666
usah	-9.8667
ngka	-9.86725
▁halus	-9.87087
▁mengingat	-9.87442
▁menjelajah	-9.87494
▁menari	-9.87656
▁gentayangan	-9.87808
▁peluang	-9.87808
▁insyaallah	-9.87808
▁perlengkapan	-9.87808
▁sabtu	-9.87808
▁sebentar	-9.87808
▁menikah	-9.8781
▁smua	-9.87815
▁nyuri	-9.87819
▁bintang	-9.87823
▁control	-9.87834
▁wkwkwk	-9.87919
▁kode	-9.87949
▁blokir	-9.87968
▁rata	-9.87991
▁loe	-9.88035
▁jadikan	-9.88055
▁kelak	-9.88061
▁isinya	-9.88074
▁mw	-9.88256
kal	-9.88467
▁aksinya	-9.88521
▁yak	-9.88648
mar	-9.88688
tra	-9.8874
kas	-9.88757
▁kh	-9.89152
▁contoh	-9.8944
▁pelayan	-9.89668
▁curi	-9.89694
bisa	-9.89744
▁im	-9.9013
▁account	-9.90247
▁perbaiki	-9.90247
▁yogyakarta	-9.90247
▁pegunungan	-9.90247
▁viral	-9.90247
▁bonus	-9.90247
▁demikian	-9.90247
▁menemukan	-9.90247
▁kaget	-9.90247
▁kelebihan	-9.90249
▁bicara	-9.90259
▁tanam	-9.90263
▁klw	-9.90311
▁tawarin	-9.9034
▁dmn	-9.90397
▁setahun	-9.90522
▁mikirin	-9.90538
▁akulaku	-9.90541
▁bal	-9.90562
▁anaknya	-9.90583
▁yok	-9.90625
▁semen	-9.90641
▁mak	-9.90841
olah	-9.91021
▁pacaran	-9.9142
letak	-9.91786
▁tok	-9.91822
sh	-9.91978
lempar	-9.91993
▁gaess	-9.92023
▁tabung	-9.92225
▁un	-9.92301
zz	-9.92367
▁ditelp	-9.92727
▁kemenangan	-9.92747
▁pesawat	-9.92747
▁center	-9.92747
▁neror	-9.92747
▁kebaikan	-9.92748
▁kpn	-9.92749
▁betapa	-9.9275
▁bayi	-9.92754
▁kesel	-9.92759
▁deket	-9.9276
▁menunjuk	-9.92774
▁menolong	-9.92784
▁biji	-9.92794
▁box	-9.92794
▁sejuk	-9.92824
▁tingkat	-9.92855
▁jogja	-9.92889
▁byar	-9.92897
▁mengenang	-9.92945
uran	-9.92969
▁apaan	-9.92979
▁pendapatan	-9.93043
▁duh	-9.93211
▁kr	-9.93339
yu	-9.93359
bal	-9.93398
yyy	-9.93518
▁diantaranya	-9.93538
▁cr	-9.93563
▁doakan	-9.93816
uuuu	-9.94051
▁gajian	-9.94164
▁bangsat	-9.94318
▁diantara	-9.94508
sta	-9.94512
laim	-9.94556
▁samping	-9.94872
▁prosesnya	-9.95122
▁papa	-9.9518
▁at	-9.95213
▁berasa	-9.95232
ry	-9.95245
▁berdasar	-9.95311
▁makassar	-9.95311
▁mendadak	-9.95311
▁mengetahui	-9.95311
▁otomatis	-9.95311
▁pembangunan	-9.95311
▁kenyamanan	-9.95311
▁melunasi	-9.95311
▁terbuka	-9.95311
▁lbh	-9.95311
▁blom	-9.95312
▁kemudahan	-9.95313
▁bnyk	-9.95313
▁diluar	-9.95313
▁ajuin	-9.95314
▁darurat	-9.95315
▁insya	-9.95321
▁polisi	-9.95323
▁mengalihkan	-9.95328
▁karya	-9.95349
▁detik	-9.95359
▁silaturahmi	-9.95386
▁maen	-9.95397
▁terbit	-9.95401
▁tipu	-9.95401
▁jo	-9.95472
▁segi	-9.9555
▁kaka	-9.9557
▁dipake	-9.95598
▁putra	-9.9564
▁tag	-9.95647
▁buang	-9.95704
▁make	-9.95721
gg	-9.95769
▁unt	-9.95809
enang	-9.95956
▁ikuti	-9.96107
▁menga	-9.96185
▁mengenal	-9.96482
▁tai	-9.96601
▁smp	-9.9686
sek	-9.96915
▁fotonya	-9.96938
▁hay	-9.96958
▁kaca	-9.97093
▁pengguna	-9.97117
homecredit	-9.97219
▁dc	-9.9732
▁ju	-9.97605
barkan	-9.97666
▁kar	-9.97736
▁sebaik	-9.97787
ye	-9.97912
▁profesional	-9.97941
▁camera	-9.97943
▁kemiskinan	-9.97943
▁seharusnya	-9.97943
▁lotup	-9.97943
▁rendah	-9.97943
▁retak	-9.97943
▁ketahuan	-9.97944
▁nusa	-9.98002
▁trili	-9.98015
▁gino	-9.98023
▁kejar	-9.98101
▁lebaran	-9.98112
▁diam	-9.98148
▁bio	-9.98158
▁jelek	-9.98159
▁halte	-9.98272
ada	-9.98289
▁inspirasi	-9.98316
▁get	-9.98506
▁now	-9.98517
▁ika	-9.99129
der	-9.99342
▁ula	-9.99364
▁harganya	-9.99615
▁sel	-9.99656
ira	-9.99678
ent	-9.99787
▁bahasa	-9.99811
▁lautan	-9.99941
pasar	-10.0002
▁aksi	-10.0013
cinta	-10.002
pen	-10.0032
▁dise	-10.0034
▁rela	-10.0039
▁gan	-10.006
▁dewasa	-10.0065
▁menjerit	-10.0065
▁menyembunyikan	-10.0065
▁pegawai	-10.0065
▁penasaran	-10.0065
▁tersenyum	-10.0065
▁twitter	-10.0065
▁kulkas	-10.0065
▁sumber	-10.0065
▁calon	-10.0065
▁minjem	-10.0065
▁dicurigai	-10.0065
▁dinner	-10.0065
▁sikap	-10.0065
▁ngopi	-10.0065
▁ortu	-10.0066
▁jaket	-10.0066
▁bertanya	-10.0066
▁model	-10.0066
▁kerjasama	-10.0067
▁warung	-10.0069
▁kemeja	-10.007
▁just	-10.0071
▁tlfn	-10.0071
▁bnyak	-10.0072
▁kerudung	-10.0072
▁ngeri	-10.0072
ini	-10.0076
▁berulang	-10.0077
▁upload	-10.0078
▁ayoo	-10.0082
▁bohong	-10.0082
▁bayangan	-10.0085
▁yo	-10.012
▁laporkan	-10.0122
▁memint	-10.0122
▁asia	-10.0126
▁ditempat	-10.0128
▁dibuat	-10.0142
▁belah	-10.0143
yo	-10.0146
aw	-10.0158
▁usahanya	-10.0163
ger	-10.0163
tok	-10.0168
▁beneran	-10.0183
if	-10.021
ttt	-10.027
▁hatiku	-10.0283
▁bekasi	-10.0285
▁ngk	-10.0289
▁jga	-10.0303
▁sobek	-10.0314
gn	-10.0324
mat	-10.0325
▁sumba	-10.0331
ep	-10.0334
irrahmanirrahim	-10.0342
▁bertanggung	-10.0342
▁digital	-10.0342
▁rentenir	-10.0342
▁terjatuh	-10.0342
▁vidio	-10.0342
▁status	-10.0342
▁tikus	-10.0342
▁konten	-10.0343
▁sekian	-10.0343
▁tiket	-10.0343
▁pengunjung	-10.0344
▁unit	-10.0344
▁terdaftar	-10.0345
▁sembar	-10.0346
▁samasama	-10.0353
▁sbg	-10.0355
▁ketawa	-10.0356
atan	-10.036
▁pasang	-10.0365
▁curiga	-10.0373
▁adek	-10.0375
▁kasi	-10.0377
▁maha	-10.0393
▁mie	-10.0393
▁tips	-10.0405
▁maksudnya	-10.0449
▁alay	-10.0472
▁gem	-10.0486
▁gt	-10.0512
▁kt	-10.0529
▁berfoto	-10.0553
langkah	-10.0566
▁taa	-10.0574
▁manfaat	-10.0589
▁capturean	-10.0589
▁meriah	-10.0589
diri	-10.0589
gara	-10.0593
mis	-10.0597
cap	-10.0609
▁ria	-10.061
▁bajunya	-10.0615
wati	-10.0618
ve	-10.0623
▁challenge	-10.0628
▁kejahatan	-10.0628
▁negri	-10.0628
▁ngapain	-10.0628
▁baper	-10.0628
▁memori	-10.0628
▁ketakutan	-10.0628
▁service	-10.0628
▁dikirim	-10.0628
▁dibutuhkan	-10.0628
▁pintar	-10.0628
▁kepoin	-10.0628
▁kulit	-10.0629
▁lulus	-10.0629
▁diadakan	-10.0629
▁dipe	-10.0631
▁ngerasa	-10.0634
▁komunitas	-10.0636
▁ahmad	-10.0636
▁merahnya	-10.0636
▁ragu	-10.0637
▁analisa	-10.0641
▁bijak	-10.0641
mpi	-10.0643
▁update	-10.0653
auto	-10.0656
▁gerak	-10.0658
▁adikku	-10.0659
lina	-10.0663
▁gelas	-10.0663
▁lelah	-10.0663
▁enaknya	-10.0663
▁bayarin	-10.0669
bb	-10.0674
▁hadir	-10.0674
▁tulisan	-10.0679
▁hand	-10.0703
tari	-10.071
yan	-10.0715
▁melati	-10.0723
▁contohnya	-10.0724
angan	-10.0775
▁bayarnya	-10.0775
nc	-10.0836
▁not	-10.0841
ciptakan	-10.0845
waktu	-10.0849
bus	-10.0849
▁pendaki	-10.0852
▁rambutnya	-10.0861
tek	-10.0877
sim	-10.0881
aku	-10.0888
▁ajah	-10.0894
potong	-10.0901
▁hitung	-10.091
anto	-10.0914
▁berpenghuni	-10.0922
▁bogor	-10.0922
▁dimulai	-10.0922
▁kepanjangan	-10.0922
▁kesuksesan	-10.0922
▁ketinggalan	-10.0922
▁membahagiakan	-10.0922
▁membersihkan	-10.0922
▁optimis	-10.0922
▁pramuka	-10.0922
▁rizky	-10.0922
▁voucher	-10.0922
▁jatoh	-10.0922
▁berjualan	-10.0922
▁mengatakan	-10.0922
▁menulis	-10.0922
▁semeru	-10.0922
▁rukun	-10.0922
▁khas	-10.0922
▁ganteng	-10.0922
▁ngerti	-10.0923
▁hangat	-10.0924
▁sambung	-10.0924
▁panik	-10.0925
▁camping	-10.0927
▁terbirit	-10.0928
▁sem	-10.0931
sandung	-10.0931
▁kuning	-10.0934
▁pcs	-10.0935
isihkan	-10.0935
▁tini	-10.0935
▁open	-10.0936
▁menyerah	-10.0941
▁gtu	-10.0946
nggu	-10.0952
▁menjalani	-10.0954
▁ditagih	-10.0955
▁ruang	-10.0959
▁enggak	-10.0971
▁cc	-10.0998
▁mulut	-10.1005
▁sal	-10.1035
▁berita	-10.104
muk	-10.1065
oleh	-10.1065
sti	-10.1081
▁bagai	-10.1099
lain	-10.112
rin	-10.1124
cu	-10.1137
hhhh	-10.1137
▁inilah	-10.1144
▁mene	-10.117
▁swt	-10.1171
▁harusnya	-10.1178
▁mena	-10.1184
▁pengumumannya	-10.1186
▁menangin	-10.1194
▁mendengar	-10.1199
▁anakku	-10.1201
▁dateng	-10.1203
anda	-10.1204
▁puas	-10.1211
▁menjalan	-10.1214
▁alami	-10.1215
▁angpau	-10.1225
▁berpartisipasi	-10.1225
▁berurusan	-10.1225
▁furniture	-10.1225
▁kebersamaan	-10.1225
▁konsultasi	-10.1225
▁menolak	-10.1225
▁peduli	-10.1225
▁perawatan	-10.1225
▁assalamualaikum	-10.1225
▁kemajuan	-10.1225
▁peniti	-10.1225
▁kereta	-10.1225
▁beraksi	-10.1226
nce	-10.1226
▁shooting	-10.1227
tar	-10.1232
▁ampun	-10.1232
▁orangtua	-10.1235
▁toleransi	-10.1236
▁klau	-10.1236
▁nelp	-10.1239
▁pelajari	-10.124
nnn	-10.1246
▁kejepit	-10.1247
▁non	-10.1248
▁ndak	-10.1258
▁simpan	-10.1269
▁kuyang	-10.1272
▁panta	-10.1283
▁login	-10.1299
▁juli	-10.1302
▁kayanya	-10.1343
▁memperingat	-10.1369
▁poto	-10.137
kira	-10.1391
▁menunj	-10.1415
sikan	-10.1416
we	-10.1439
ud	-10.1444
▁td	-10.1448
th	-10.145
nk	-10.1455
lor	-10.1462
nilai	-10.1464
tin	-10.1474
▁app	-10.1487
alur	-10.1497
kkk	-10.1498
laxy	-10.1513
▁ditelfon	-10.1515
▁beragam	-10.1518
▁terse	-10.1526
▁februari	-10.1538
▁jenggot	-10.1538
▁kebiasaan	-10.1538
▁keuntungan	-10.1538
▁penampakan	-10.1538
▁privasi	-10.1538
▁sosmed	-10.1538
▁tuntas	-10.1538
▁memenangkan	-10.1538
▁menusuk	-10.1538
▁derawan	-10.1538
▁feed	-10.1538
▁memandang	-10.1538
▁setidaknya	-10.1538
▁menyadari	-10.1538
▁nkri	-10.1538
▁php	-10.1538
▁kebanyakan	-10.1538
▁kekuatan	-10.1539
▁bekerjasama	-10.1539
▁cicak	-10.1539
▁arisan	-10.1539
▁mundur	-10.1539
▁mengajarkan	-10.154
▁kos	-10.154
▁this	-10.1543
▁upgrade	-10.1544
▁risih	-10.1544
▁mayat	-10.1551
▁diikuti	-10.1554
▁sebanyak	-10.1554
▁nemu	-10.1555
▁menghi	-10.1559
va	-10.156
▁pakaian	-10.156
cil	-10.1561
wun	-10.1568
tasi	-10.1581
tif	-10.1589
nto	-10.1594
isa	-10.1599
▁am	-10.1631
▁pn	-10.164
▁hri	-10.164
anti	-10.1652
lon	-10.1694
aja	-10.1709
▁telu	-10.1722
mas	-10.1723
▁anj	-10.1729
ment	-10.1732
▁minn	-10.1739
eeee	-10.174
ren	-10.1745
▁tele	-10.1747
▁sis	-10.1748
lin	-10.175
uci	-10.1754
emng	-10.1763
lik	-10.1768
ntang	-10.1771
▁bersamaan	-10.1776
▁temanku	-10.1781
kadang	-10.1789
rit	-10.1803
▁tra	-10.182
▁sisi	-10.183
▁dite	-10.1841
▁berkat	-10.1855
yah	-10.1857
▁cctv	-10.186
▁istirahat	-10.186
▁emosi	-10.186
▁menghormati	-10.186
▁terdepan	-10.186
▁penadah	-10.186
▁simple	-10.186
▁hiburan	-10.186
▁kuota	-10.186
▁nmr	-10.186
▁boros	-10.186
▁lets	-10.186
▁sodara	-10.1862
▁tampak	-10.1865
▁berhubung	-10.1867
▁max	-10.187
▁team	-10.1871
▁tersedia	-10.1872
▁kunci	-10.1872
▁harta	-10.1878
▁day	-10.188
▁congrats	-10.1886
▁gr	-10.1892
▁dipegang	-10.1902
▁yes	-10.1904
▁ilang	-10.1908
▁sayangnya	-10.1911
nggal	-10.1921
▁sok	-10.1962
▁pinjeman	-10.1979
▁fin	-10.198
▁duluan	-10.1983
▁wo	-10.1988
wah	-10.2001
▁bel	-10.2001
hon	-10.2022
gh	-10.2033
▁hmmm	-10.2057
▁kn	-10.2061
▁wajahnya	-10.2079
▁danau	-10.2086
rup	-10.2093
satu	-10.2096
▁ban	-10.2096
end	-10.2113
gang	-10.2116
▁sek	-10.2123
ls	-10.2132
pp	-10.2135
▁penye	-10.2145
▁ex	-10.2166
▁ser	-10.217
lia	-10.2173
▁selfi	-10.2181
▁guru	-10.2183
▁tulis	-10.2184
▁anggota	-10.2194
▁error	-10.2194
▁langganan	-10.2194
▁menggangu	-10.2194
▁piknik	-10.2194
▁rumput	-10.2194
▁spesial	-10.2194
▁mendatang	-10.2194
▁upacara	-10.2194
▁miskin	-10.2194
▁modus	-10.2194
▁istana	-10.2194
▁tutup	-10.2194
▁bengong	-10.2194
▁didepan	-10.2194
▁tenaga	-10.2194
▁sebenernya	-10.2194
▁selatan	-10.2194
▁rindu	-10.2194
▁apply	-10.2195
▁vlog	-10.2195
▁kolak	-10.2196
▁spot	-10.2197
▁emg	-10.2198
▁surat	-10.2198
▁minimal	-10.22
▁rapi	-10.2202
▁tlpon	-10.2204
▁beliau	-10.2204
▁lembut	-10.2205
▁berbunyi	-10.2206
▁sanur	-10.2208
▁akibat	-10.221
▁ye	-10.2216
▁salak	-10.2217
▁sob	-10.222
lip	-10.2222
▁gorengan	-10.2223
▁panggilan	-10.2242
▁sop	-10.225
▁haloo	-10.2254
▁keliling	-10.2265
▁jangka	-10.2269
▁nolak	-10.2272
▁pri	-10.2279
mer	-10.2318
af	-10.2324
baran	-10.2328
▁hatinya	-10.2331
enantia	-10.2332
▁penipuan	-10.2342
one	-10.2346
jang	-10.2348
▁yuks	-10.2362
▁bantuannya	-10.2363
ow	-10.2371
▁lanjutan	-10.2375
bagi	-10.2399
▁kerjanya	-10.2406
▁kur	-10.2416
▁or	-10.2444
ive	-10.2452
▁layar	-10.2459
▁sb	-10.2476
▁tebak	-10.2477
sari	-10.2496
▁promonya	-10.2502
▁republi	-10.2534
▁joging	-10.2538
▁kecurigaan	-10.2538
▁memperbaiki	-10.2538
▁pengiriman	-10.2538
▁perubahan	-10.2538
▁plastik	-10.2538
▁tertinggi	-10.2538
▁barangbarang	-10.2538
▁berhutang	-10.2538
▁berkarya	-10.2538
▁mengganti	-10.2538
▁mengembangkan	-10.2538
▁trimakasih	-10.2539
▁dibaca	-10.2539
▁blg	-10.2539
▁ultah	-10.2539
▁travelling	-10.2539
▁pantes	-10.254
▁melayang	-10.2541
▁spam	-10.2543
▁raga	-10.2544
▁orng	-10.2545
▁citacita	-10.2545
▁mesti	-10.2549
▁bngt	-10.2551
▁sepanjang	-10.2553
▁ngada	-10.2556
▁serius	-10.2558
▁gamau	-10.2561
▁gengsi	-10.2568
▁heran	-10.2568
▁gendong	-10.2569
▁dy	-10.257
▁dibanding	-10.2577
▁daun	-10.2582
▁ly	-10.2583
▁hubungin	-10.2584
▁mm	-10.2605
▁bete	-10.2612
pai	-10.2619
▁dibantu	-10.2619
▁balikin	-10.2642
unjung	-10.2642
▁game	-10.2654
▁pra	-10.2656
kasih	-10.2657
aka	-10.2699
tuh	-10.2725
▁brg	-10.2733
▁hii	-10.2736
▁sekalipun	-10.2736
▁harinya	-10.2739
▁sari	-10.2749
▁hmm	-10.2761
▁hey	-10.2762
▁mal	-10.2762
amat	-10.2766
▁ker	-10.278
lau	-10.2792
nwar	-10.28
▁infonya	-10.2808
▁sblm	-10.2813
tugas	-10.282
ikat	-10.2825
▁el	-10.2833
▁woi	-10.2835
▁sayur	-10.2845
▁tadinya	-10.2847
lar	-10.2854
▁beliin	-10.2877
dara	-10.2888
▁shampo	-10.2891
lagi	-10.2892
▁detail	-10.2896
▁ditabung	-10.2896
▁mengecewakan	-10.2896
▁menghemat	-10.2896
▁rinjani	-10.2896
▁sejenak	-10.2896
▁terbenam	-10.2896
▁pencairan	-10.2896
▁meminjam	-10.2896
▁organisasi	-10.2896
▁jwb	-10.2896
▁hello	-10.2896
▁terror	-10.2896
▁kuyy	-10.2896
▁beach	-10.2897
▁milih	-10.2897
▁traveling	-10.2898
▁peserta	-10.29
▁jago	-10.2901
▁tampang	-10.2901
▁nipu	-10.2901
▁wktu	-10.2902
▁terbatas	-10.2902
▁dosa	-10.2903
▁potensi	-10.2905
▁marketingnya	-10.2906
▁jernih	-10.2908
rp	-10.2909
▁berguna	-10.2909
▁sembarangan	-10.291
▁sebut	-10.2916
▁kotor	-10.2921
angkut	-10.2922
▁bar	-10.2922
wo	-10.2927
▁yk	-10.2928
▁back	-10.293
ue	-10.293
▁uji	-10.2934
au	-10.2961
dari	-10.2963
▁kasian	-10.2963
▁mend	-10.2964
▁kuda	-10.297
▁apalah	-10.2974
▁dijalan	-10.2978
▁tenda	-10.2985
angkat	-10.2985
▁diajak	-10.3042
▁arti	-10.3068
▁bad	-10.3083
ika	-10.3092
▁mele	-10.3105
▁barangnya	-10.3121
▁aplikasinya	-10.3131
laksanakan	-10.3145
▁gen	-10.3168
ib	-10.317
haha	-10.3171
masa	-10.3176
son	-10.3185
hitung	-10.3192
inginkan	-10.3192
▁ribuan	-10.3196
▁tangis	-10.3214
ntah	-10.3223
▁gengs	-10.3234
▁car	-10.3237
▁mna	-10.3244
ahan	-10.3251
▁mudahan	-10.3252
tunjuk	-10.3254
mpulkan	-10.3264
▁diketahui	-10.3266
▁disekitar	-10.3266
▁diumumin	-10.3266
▁kredivo	-10.3266
▁mencekik	-10.3266
▁operator	-10.3266
▁pejuang	-10.3266
▁pembelajar	-10.3266
▁sholat	-10.3266
▁tentram	-10.3266
▁serigala	-10.3266
▁terkabul	-10.3266
▁ditunggu	-10.3266
▁teguh	-10.3266
▁bbrp	-10.3266
▁berobat	-10.3266
▁patut	-10.3266
▁langit	-10.3266
▁menelfon	-10.3266
▁sejati	-10.3266
▁surga	-10.3266
▁kesalahan	-10.3266
▁seleksi	-10.3266
edukasi	-10.3266
▁jepang	-10.3266
▁gulung	-10.3267
▁garansi	-10.3267
▁mempermudah	-10.3267
▁produktif	-10.3269
▁wifi	-10.3269
▁pd	-10.3269
▁lawang	-10.3272
▁maap	-10.3272
▁debur	-10.3272
▁malang	-10.3274
▁lantai	-10.3275
▁huruf	-10.3276
ebut	-10.3278
▁hihi	-10.3278
▁raja	-10.3278
▁bego	-10.3278
▁ngade	-10.3279
▁sebesar	-10.3281
▁dengerin	-10.3286
▁jelaskan	-10.3289
▁yuuk	-10.3292
▁dpat	-10.3297
tergantung	-10.3298
▁aturan	-10.3301
▁sedekah	-10.3302
▁gabisa	-10.3309
▁pantang	-10.3312
▁dukung	-10.3324
jelas	-10.3326
▁persi	-10.3334
▁kost	-10.3342
▁garis	-10.3345
bab	-10.3353
▁seharian	-10.3358
▁ayu	-10.3374
▁letak	-10.3379
put	-10.3382
▁halal	-10.3384
▁pesanan	-10.3397
▁cape	-10.3415
ssss	-10.3424
▁sewa	-10.3426
▁gada	-10.3444
ket	-10.3445
alan	-10.3449
▁dengar	-10.3458
kata	-10.3482
gra	-10.3492
kel	-10.3514
pin	-10.3519
▁jawabnya	-10.3548
rrr	-10.3561
▁can	-10.3561
▁tempatnya	-10.3568
anyakan	-10.3582
fe	-10.3597
▁gi	-10.3613
▁insta	-10.3618
▁selamanya	-10.3618
▁berbelanja	-10.3651
▁erafone	-10.3651
▁komplotan	-10.3651
▁masingmasing	-10.3651
▁memuaskan	-10.3651
▁menyelesaikan	-10.3651
▁milenial	-10.3651
▁perkakas	-10.3651
▁rempong	-10.3651
▁terkejut	-10.3651
▁tersendiri	-10.3651
▁afrika	-10.3651
▁hendak	-10.3651
▁mempertahan	-10.3651
▁terkait	-10.3651
▁kekinian	-10.3651
▁memaksa	-10.3651
▁meneror	-10.3651
▁ngeliat	-10.3651
▁srigala	-10.3651
▁kaleng	-10.3651
▁kesampaian	-10.3651
▁tertera	-10.3651
▁sembunyi	-10.3651
▁ditarik	-10.3651
▁nasionalisme	-10.3651
▁persegi	-10.3651
▁profil	-10.3651
▁fitur	-10.3651
▁perlahan	-10.3651
▁ditangan	-10.3651
▁gili	-10.3652
▁with	-10.3652
▁hihihi	-10.3652
▁puisi	-10.3653
▁merata	-10.3653
▁kembang	-10.3656
▁malas	-10.3657
▁dewan	-10.3657
▁perjanjian	-10.3658
dam	-10.3659
▁babi	-10.3662
▁semalam	-10.3662
▁rekomendasi	-10.3664
▁asing	-10.3665
▁gembira	-10.3667
▁pengetahuan	-10.3667
▁setengah	-10.3667
▁waris	-10.3668
dek	-10.3673
▁kursi	-10.3679
▁agen	-10.3681
▁phone	-10.3685
▁pembelian	-10.3695
▁direspon	-10.3701
▁bla	-10.3708
taring	-10.371
▁perhatikan	-10.3725
▁akal	-10.3725
▁sak	-10.3728
▁masi	-10.3729
▁kreditan	-10.3749
tion	-10.376
▁laporan	-10.3764
ning	-10.3769
▁telfonin	-10.3776
▁sisir	-10.3784
▁masakan	-10.3793
▁keluarganya	-10.3798
olong	-10.3798
kni	-10.3803
▁ali	-10.3804
▁smg	-10.3806
perhatikan	-10.3806
▁ayok	-10.384
▁maya	-10.3863
▁bagiku	-10.3883
sil	-10.3891
sy	-10.3902
peroleh	-10.3909
▁teh	-10.3913
▁inst	-10.3921
▁raf	-10.3925
nj	-10.3933
way	-10.3934
pasir	-10.3979
ulang	-10.3985
▁tt	-10.399
▁bersa	-10.4001
▁fi	-10.4007
menin	-10.4009
nci	-10.401
▁followersnya	-10.4016
anggap	-10.4017
▁mumpun	-10.402
▁neng	-10.4021
lebih	-10.4022
▁berisi	-10.4027
▁dihubungi	-10.4036
api	-10.4043
line	-10.4049
▁dokumen	-10.405
▁alhamdulilah	-10.4051
▁berjemur	-10.4051
▁detektif	-10.4051
▁dimiliki	-10.4051
▁kronologi	-10.4051
▁menjatuhkan	-10.4051
▁ngabisin	-10.4051
▁official	-10.4051
▁pendaftaran	-10.4051
▁prestasi	-10.4051
▁sesungguhnya	-10.4051
▁siangsiang	-10.4051
▁dicicil	-10.4051
▁rules	-10.4051
▁seumur	-10.4051
▁type	-10.4051
▁resmi	-10.4051
▁sempet	-10.4051
▁tools	-10.4051
▁utara	-10.4051
▁nunjuk	-10.4051
▁disamping	-10.4051
▁ucapkan	-10.4051
▁caption	-10.4051
▁sllu	-10.4051
▁halaman	-10.4051
▁polusi	-10.4051
▁kontol	-10.4051
▁kridit	-10.4051
▁lapar	-10.4052
▁dibeli	-10.4052
▁fix	-10.4053
▁pendek	-10.4054
▁merusak	-10.4054
▁rugi	-10.4055
▁kolor	-10.4055
▁kesurupan	-10.4055
▁wisatawan	-10.4056
▁salon	-10.4057
▁tumbuh	-10.4057
▁ijo	-10.4059
▁menanti	-10.4059
▁terbukti	-10.406
▁babang	-10.4061
▁punggung	-10.4061
▁salesnya	-10.4063
ez	-10.4063
▁wangi	-10.4067
sis	-10.4067
ono	-10.4071
▁kini	-10.4077
▁singkat	-10.4078
▁yaudah	-10.4079
▁pandai	-10.4081
low	-10.4084
▁rupanya	-10.4089
▁gaada	-10.4092
▁berkata	-10.4094
▁misi	-10.4094
▁wijaya	-10.4095
antar	-10.4101
▁its	-10.4106
▁dimanapun	-10.4126
tim	-10.4127
▁rakyatnya	-10.4133
▁indo	-10.4136
▁makam	-10.4138
▁karang	-10.4139
▁mela	-10.4164
nempel	-10.4176
▁diawal	-10.418
enteng	-10.4197
▁ud	-10.4199
▁menghadap	-10.4225
lima	-10.4228
▁ras	-10.4239
▁butuhkan	-10.4262
▁menyi	-10.4275
bit	-10.4278
▁pengu	-10.4289
esia	-10.4291
▁log	-10.4299
▁menge	-10.4306
▁sakunya	-10.4312
lian	-10.4315
njang	-10.4322
cek	-10.4333
par	-10.4377
▁plis	-10.439
jauh	-10.4392
bener	-10.4394
ona	-10.4408
▁travel	-10.4413
▁berpe	-10.4419
uest	-10.4421
ain	-10.4428
lek	-10.4438
▁jamin	-10.4442
▁denger	-10.4446
tttt	-10.4451
▁android	-10.4467
▁berhemat	-10.4467
▁identitas	-10.4467
▁kesibukan	-10.4467
▁komunikasi	-10.4467
▁melompat	-10.4467
▁panitia	-10.4467
▁pernikahan	-10.4467
▁praktis	-10.4467
▁purnama	-10.4467
▁texas	-10.4467
▁refreshing	-10.4467
▁unggul	-10.4467
▁melulu	-10.4467
▁kewajiban	-10.4467
▁terindah	-10.4467
▁keramas	-10.4467
▁dikantong	-10.4467
▁ambyar	-10.4467
▁ketahui	-10.4467
▁milyar	-10.4467
▁terburu	-10.4467
bhineka	-10.4468
▁ayam	-10.4468
▁jantung	-10.4468
▁arwah	-10.4468
▁belanda	-10.4468
▁percuma	-10.4468
▁kuasa	-10.4468
ifikasi	-10.4469
king	-10.4469
▁memajuk	-10.4469
▁menyambut	-10.447
▁pesta	-10.4472
▁situasi	-10.4473
▁bodoh	-10.4474
▁kalimantan	-10.4474
nasi	-10.4475
▁penampilan	-10.4475
▁tangerang	-10.4475
▁terbesar	-10.4477
▁kabel	-10.4482
▁dikenal	-10.4483
▁manja	-10.4483
▁gurun	-10.4485
▁wewe	-10.4486
▁wujudkan	-10.4488
▁ulur	-10.4495
▁setujui	-10.4497
jadi	-10.4499
▁kreasi	-10.4504
▁iyaa	-10.4513
cara	-10.4514
▁edit	-10.4514
▁mumpuni	-10.4515
▁mendengarkan	-10.452
mata	-10.4526
▁berte	-10.4532
▁tungga	-10.4534
▁part	-10.4538
▁kecu	-10.4554
▁kirinya	-10.4555
ncing	-10.4559
▁bgtu	-10.4561
mau	-10.4562
▁rangka	-10.4568
▁lunasi	-10.4571
enyobek	-10.4599
▁jutaan	-10.4604
ggg	-10.4617
▁bosan	-10.4624
▁tata	-10.4628
forma	-10.4641
▁berba	-10.4652
▁gais	-10.4653
▁naf	-10.466
▁dapetnya	-10.466
▁tw	-10.4666
▁beras	-10.4667
ambal	-10.4673
▁sup	-10.4697
▁mom	-10.4703
▁ram	-10.4715
angga	-10.4718
▁presidennya	-10.4718
▁ir	-10.4741
▁bre	-10.4754
embalian	-10.4777
▁may	-10.4796
▁usa	-10.4798
uduh	-10.48
mpel	-10.4804
nnya	-10.484
rn	-10.4847
setiap	-10.4848
iring	-10.4851
▁beres	-10.4858
▁maki	-10.4871
▁jadian	-10.4873
▁pendapat	-10.4876
▁terp	-10.4883
ulkan	-10.489
▁wkt	-10.4895
ulfia	-10.4898
▁photo	-10.4901
solusilunasutang	-10.4902
▁bangkrut	-10.4902
▁disetujui	-10.4902
▁dribbling	-10.4902
▁ghaniyyu	-10.4902
▁jembatan	-10.4902
▁kebersihan	-10.4902
▁komodo	-10.4902
▁medsos	-10.4902
▁mempesona	-10.4902
▁palembang	-10.4902
▁pelosok	-10.4902
▁pengangguran	-10.4902
▁royong	-10.4902
▁hijab	-10.4902
▁kelereng	-10.4902
▁membuktikan	-10.4902
▁pukul	-10.4902
▁debt	-10.4902
▁tertahan	-10.4902
▁ditinggal	-10.4902
▁menagih	-10.4902
▁makanankue	-10.4902
▁menemani	-10.4902
▁dibalas	-10.4902
▁wawasan	-10.4902
▁kesejahteraan	-10.4902
▁sewu	-10.4902
▁lestari	-10.4902
▁kencang	-10.4902
▁pindah	-10.4903
▁cucu	-10.4903
▁ditaman	-10.4903
▁capai	-10.4903
▁ubah	-10.4904
▁menyesal	-10.4904
▁melancar	-10.4905
▁memanjakan	-10.4905
▁atap	-10.4905
▁balon	-10.4906
▁perbulan	-10.4906
▁menginspirasi	-10.4907
orama	-10.4908
ster	-10.4911
▁nasib	-10.4912
▁peminjaman	-10.4912
▁mantai	-10.4933
▁lampung	-10.4936
▁tahan	-10.4946
▁kakek	-10.4946
▁andalan	-10.4946
▁panda	-10.4948
▁handphonenya	-10.495
▁fungsi	-10.4958
ock	-10.4959
▁kmu	-10.4963
▁anggap	-10.4986
▁kentang	-10.4989
untuk	-10.4991
▁kapanpun	-10.4995
oh	-10.5005
kam	-10.5026
▁lempar	-10.5036
▁didapat	-10.5044
▁tmp	-10.5053
oooo	-10.5079
▁berikutnya	-10.5083
▁bibi	-10.5085
▁sapa	-10.5088
▁taun	-10.5089
▁mil	-10.5107
saya	-10.5116
jat	-10.512
▁set	-10.5128
▁va	-10.5135
rap	-10.5136
upuk	-10.5142
long	-10.5155
kat	-10.5162
▁upaya	-10.5169
ggu	-10.5169
▁syaratnya	-10.5169
▁juni	-10.517
▁hahahaha	-10.5179
▁gag	-10.5182
llll	-10.5189
▁tol	-10.5192
anak	-10.5202
▁kudu	-10.5212
balik	-10.5267
▁yeay	-10.5274
cha	-10.5285
lap	-10.5298
▁perut	-10.5307
▁rupiah	-10.5317
banyak	-10.5323
▁setuju	-10.5326
lupakan	-10.5335
▁nawar	-10.5338
▁kesukaan	-10.5343
▁lem	-10.5347
▁op	-10.5348
▁market	-10.5355
▁ariaabbas	-10.5357
▁berlimpah	-10.5357
▁coklat	-10.5357
▁congratulation	-10.5357
▁dipaksa	-10.5357
▁ibadah	-10.5357
▁ibox	-10.5357
▁kemampuan	-10.5357
▁keterlaluan	-10.5357
▁leptop	-10.5357
▁lowongan	-10.5357
▁melestarikan	-10.5357
▁memotret	-10.5357
▁menyukai	-10.5357
▁perkembangan	-10.5357
▁ponsel	-10.5357
▁support	-10.5357
▁website	-10.5357
▁mendoakan	-10.5357
▁ufo	-10.5357
▁ditindak	-10.5357
▁pesona	-10.5357
▁chines	-10.5357
▁keterangan	-10.5357
▁ransel	-10.5357
▁diganggu	-10.5357
▁turut	-10.5357
▁borong	-10.5357
▁kejelasan	-10.5357
cur	-10.5358
▁nyanyi	-10.5358
▁aceh	-10.5358
▁penumpang	-10.5359
▁checking	-10.5359
▁addik	-10.5359
▁saputra	-10.5359
▁aktifitas	-10.5359
▁lemari	-10.5359
ksi	-10.5359
▁bergabung	-10.536
▁berjumpa	-10.536
▁batam	-10.5361
▁darat	-10.5362
▁nyampe	-10.5362
▁menjauh	-10.5363
▁senin	-10.5368
▁berharga	-10.5368
▁collector	-10.5369
▁download	-10.5369
▁akses	-10.5375
▁care	-10.5376
▁izin	-10.5376
▁ip	-10.5378
▁flash	-10.538
▁kumis	-10.5381
yuk	-10.5381
▁terl	-10.5384
▁wkwkwkwk	-10.5385
▁pangan	-10.5386
▁tolol	-10.5388
▁ditelfonin	-10.539
▁tega	-10.5391
▁berfikir	-10.5397
▁rama	-10.5398
▁kaku	-10.5406
uma	-10.5418
▁mamah	-10.5423
▁era	-10.5428
▁war	-10.5444
▁hapenya	-10.5452
▁haii	-10.5466
but	-10.547
ekor	-10.547
▁tindakan	-10.5484
pus	-10.5486
▁terlaksana	-10.5508
▁anti	-10.5514
ula	-10.5517
enak	-10.5521
ngat	-10.5525
▁terang	-10.5533
▁desain	-10.5534
▁kri	-10.5544
▁instan	-10.5548
andra	-10.5551
cer	-10.5556
imbang	-10.5564
sel	-10.5576
▁nyatanya	-10.5582
▁indonesiaku	-10.5586
▁persyaratannya	-10.5593
ndang	-10.5594
engok	-10.5613
sir	-10.5631
▁buk	-10.5642
▁sun	-10.565
▁thr	-10.5669
atkan	-10.569
▁kenalan	-10.5706
mbah	-10.5707
▁kap	-10.573
kredit	-10.5738
habis	-10.5752
tuk	-10.5768
▁sho	-10.5776
▁penjajah	-10.578
▁posting	-10.5786
▁taik	-10.5787
▁pembeli	-10.579
▁saatnya	-10.5799
▁fil	-10.5804
stasi	-10.5824
aaaaa	-10.5825
▁berb	-10.5829
▁feb	-10.5829
benarbenar	-10.5833
▁bersangkutan	-10.5833
▁bersikap	-10.5833
▁berwisata	-10.5833
▁budget	-10.5833
▁keberuntungan	-10.5833
▁kedondong	-10.5833
▁kerukunan	-10.5833
▁menguntungkan	-10.5833
▁nabrak	-10.5833
▁pancasila	-10.5833
▁penyiar	-10.5833
▁perekonomian	-10.5833
▁permasalahan	-10.5833
▁pinggang	-10.5833
▁repost	-10.5833
▁traveller	-10.5833
▁papua	-10.5833
▁seberapa	-10.5833
▁waspada	-10.5833
▁menerpa	-10.5833
▁mirip	-10.5833
▁dikunjungi	-10.5833
▁lambat	-10.5833
▁memory	-10.5833
▁sudut	-10.5833
▁menjelaskan	-10.5833
▁tokped	-10.5833
▁berkurang	-10.5833
▁maklum	-10.5833
▁perkara	-10.5833
▁perahu	-10.5833
▁tingkah	-10.5833
▁dikembalikan	-10.5833
▁mengerti	-10.5833
▁dugaan	-10.5833
▁store	-10.5833
▁kehabisan	-10.5833
▁kusut	-10.5833
▁pidana	-10.5833
▁rutinitas	-10.5833
▁kacamata	-10.5833
▁keramat	-10.5833
▁parkir	-10.5835
▁pisang	-10.5836
▁umat	-10.5837
▁puji	-10.5838
▁malammalam	-10.5838
▁berakhir	-10.5841
▁panas	-10.5842
▁job	-10.5843
▁bergerak	-10.5843
▁sistemnya	-10.5845
▁ceritakan	-10.5851
▁gangguan	-10.5857
▁basah	-10.5857
kon	-10.5861
mm	-10.5862
evita	-10.5865
▁ukuran	-10.5872
▁sr	-10.5873
ww	-10.5875
▁nu	-10.5881
▁kg	-10.5883
pihak	-10.5884
▁datengin	-10.5886
aaaaaa	-10.589
▁bkn	-10.589
▁sept	-10.5891
▁buruburu	-10.5894
▁apaapa	-10.59
▁jm	-10.5902
aruh	-10.5902
kak	-10.5902
▁tegas	-10.5903
▁ajar	-10.5905
mak	-10.5907
tikung	-10.591
▁diterima	-10.5912
▁perih	-10.5915
▁hei	-10.5915
▁pliss	-10.5923
ibu	-10.5933
▁laku	-10.5936
▁milea	-10.594
guna	-10.5948
▁buta	-10.595
▁umumkan	-10.5953
▁wkwkw	-10.5955
manamana	-10.5959
▁stress	-10.5964
▁jl	-10.5976
▁tepatnya	-10.5987
▁dikota	-10.5987
den	-10.5993
▁dibalik	-10.6011
▁kacang	-10.6017
lung	-10.6022
kir	-10.6029
▁dimasa	-10.6059
jalan	-10.608
asan	-10.6081
tir	-10.6083
▁tru	-10.609
gunung	-10.6091
▁dikira	-10.6098
▁ari	-10.6109
▁tan	-10.611
ruk	-10.6122
nah	-10.6127
ntai	-10.613
utuskan	-10.6137
gak	-10.6138
▁cap	-10.6148
arah	-10.615
ala	-10.6159
▁lgs	-10.6169
▁bru	-10.6191
▁buktikan	-10.6194
otong	-10.6196
bunyi	-10.6196
ikut	-10.6198
uangkan	-10.6203
utang	-10.6205
▁mewujudkannya	-10.6213
neka	-10.6222
sandi	-10.6226
entar	-10.623
bulan	-10.6237
mmm	-10.6248
tulis	-10.6259
▁dongg	-10.6259
▁pin	-10.6262
▁nova	-10.6265
▁jr	-10.6267
▁pt	-10.6276
▁pda	-10.6279
mbuhkan	-10.6296
malem	-10.6297
▁thank	-10.63
▁en	-10.6304
▁berbunga	-10.6325
▁smile	-10.6326
▁check	-10.6331
▁facebook	-10.6333
▁karimun	-10.6333
▁kelanjutan	-10.6333
▁kepilih	-10.6333
▁memungkinkan	-10.6333
▁merugikan	-10.6333
▁persaudaraan	-10.6333
▁rombongan	-10.6333
▁terpecah	-10.6333
▁engkau	-10.6333
▁verifikasi	-10.6333
▁repot	-10.6333
▁anggaran	-10.6333
▁pemilu	-10.6333
▁termurah	-10.6333
▁pemesan	-10.6333
▁efek	-10.6333
▁lapak	-10.6333
▁kekurangan	-10.6333
▁trims	-10.6333
▁berjaya	-10.6333
▁menghampiri	-10.6333
▁transportasi	-10.6333
▁melewati	-10.6333
▁diganti	-10.6333
▁nangis	-10.6334
▁rutin	-10.6334
▁dibuka	-10.6334
▁remaja	-10.6334
▁awet	-10.6335
▁alibi	-10.6335
▁mendaftar	-10.6335
▁kurma	-10.6336
▁alloh	-10.6337
tabrak	-10.6337
▁titik	-10.6337
▁analisis	-10.6338
▁membagi	-10.6339
▁lokal	-10.6339
▁kmrn	-10.6341
▁dtg	-10.6341
▁ekspresi	-10.6343
▁obat	-10.6343
▁ibuibu	-10.6344
▁kopinya	-10.6344
▁tlong	-10.6345
▁terhormat	-10.6346
▁jumpa	-10.635
jari	-10.6353
▁dada	-10.6364
▁tanggapan	-10.6368
▁paksa	-10.6376
▁bosen	-10.6382
▁suci	-10.6383
▁dijalankan	-10.6387
mit	-10.6397
ner	-10.64
▁sdah	-10.6406
▁memas	-10.6408
▁pert	-10.6413
▁yee	-10.6414
kkkk	-10.6418
pon	-10.642
num	-10.6421
gat	-10.6422
▁kelar	-10.6427
▁ngaku	-10.643
ida	-10.6445
▁manapun	-10.6465
▁aminn	-10.6465
dera	-10.6478
ombo	-10.6488
▁kian	-10.6493
ten	-10.6496
▁adit	-10.6498
▁lau	-10.6501
gt	-10.6503
▁sim	-10.6503
ami	-10.6507
mudah	-10.6508
▁keli	-10.6508
▁cam	-10.6511
llah	-10.6519
▁diem	-10.6521
uri	-10.6522
hel	-10.6522
serta	-10.6522
▁pern	-10.6524
▁disisi	-10.6529
ancam	-10.6536
dahal	-10.6536
udh	-10.6537
▁hubungannya	-10.6539
▁diperhatikan	-10.655
▁pk	-10.6567
▁che	-10.6588
gah	-10.6611
▁ahh	-10.6613
▁buktinya	-10.6614
rahkan	-10.6617
arung	-10.6624
ell	-10.6628
cium	-10.663
kota	-10.6645
ilitas	-10.6658
uli	-10.666
pas	-10.6686
▁chai	-10.6687
lal	-10.6689
▁jati	-10.6707
rangga	-10.6712
wang	-10.6716
▁adm	-10.6718
ainkan	-10.6721
▁tel	-10.6725
ray	-10.6727
ect	-10.6758
▁tujuannya	-10.676
didik	-10.6762
▁sekitarnya	-10.6768
▁nagihnya	-10.6777
inspirasi	-10.6778
produk	-10.6783
bebas	-10.6785
info	-10.6786
negara	-10.6787
▁peti	-10.6796
▁dapatnya	-10.6842
▁soto	-10.6842
hormat	-10.6845
▁pny	-10.6847
suri	-10.6856
▁kelakuan	-10.6856
genggam	-10.6859
▁bahaya	-10.6859
▁berpindah	-10.6859
▁cahaya	-10.6859
▁enjoy	-10.6859
▁fotografi	-10.6859
▁google	-10.6859
▁januari	-10.6859
▁koruptor	-10.6859
▁lakilaki	-10.6859
▁melimpah	-10.6859
▁memikirkan	-10.6859
▁memperjuangkan	-10.6859
▁menakjubkan	-10.6859
▁merianasilva	-10.6859
▁millenial	-10.6859
▁snorkling	-10.6859
▁tementemen	-10.6859
▁tertentu	-10.6859
▁memahami	-10.6859
▁plaza	-10.6859
▁berkesan	-10.6859
▁lemot	-10.6859
▁dapur	-10.6859
▁palsu	-10.6859
pelopor	-10.6859
▁nggk	-10.6859
▁menangkap	-10.6859
▁nurfa	-10.6859
▁mendekat	-10.6859
▁complain	-10.6859
▁mengelola	-10.6859
▁hits	-10.6859
▁cashback	-10.6859
▁beringin	-10.686
▁ikhlas	-10.686
▁kebun	-10.686
▁diminta	-10.6861
▁mencicil	-10.6861
▁merapi	-10.6861
▁wahyu	-10.6862
▁disalah	-10.6862
▁hewan	-10.6863
▁melawan	-10.6863
▁berkalikali	-10.6864
▁cabang	-10.6864
▁buntung	-10.6864
▁gunda	-10.6865
▁tengok	-10.6866
▁smpai	-10.6866
▁terjaga	-10.6867
▁hampa	-10.6867
wulan	-10.6868
▁jaringan	-10.6868
▁bernama	-10.6868
▁abc	-10.6868
▁cem	-10.6869
▁lalat	-10.6871
▁tnp	-10.6875
▁berkumpul	-10.6875
▁pic	-10.6876
engin	-10.6877
▁tks	-10.6878
▁ramadhan	-10.6878
▁nahh	-10.6879
sit	-10.688
jaman	-10.6884
▁lw	-10.6887
▁keadilan	-10.6888
▁nyi	-10.6889
pal	-10.6893
▁ngajukan	-10.6901
sadar	-10.6906
▁ketempat	-10.6907
▁sisihkan	-10.6907
▁sdg	-10.6912
▁ky	-10.6914
▁cantumkan	-10.6915
▁cina	-10.6915
isasi	-10.6916
▁omongan	-10.6916
lama	-10.6928
▁dipikir	-10.6929
awal	-10.6933
▁mengenalkan	-10.6939
▁cans	-10.6941
▁yaaaa	-10.6951
▁send	-10.696
▁brpa	-10.6969
▁alfa	-10.6976
prti	-10.6993
▁kli	-10.6995
▁ngu	-10.6999
▁jadinya	-10.7
pang	-10.7
▁elu	-10.7006
rawat	-10.7007
gunakan	-10.7015
▁lanjuti	-10.7015
▁cintaku	-10.702
mon	-10.704
ppp	-10.7045
ria	-10.7049
▁yukkk	-10.7053
ero	-10.706
baya	-10.7066
▁cha	-10.7072
▁kam	-10.7076
sal	-10.709
▁dieng	-10.7095
▁lokasinya	-10.7099
▁minim	-10.7115
pro	-10.7123
▁http	-10.7124
uhan	-10.7128
aga	-10.7134
pasti	-10.7141
ingg	-10.7153
▁rejekinya	-10.7176
tengah	-10.7177
out	-10.7189
▁aduh	-10.7192
▁far	-10.7203
▁rezekinya	-10.7208
▁bercer	-10.7221
sm	-10.7243
▁beb	-10.7264
pit	-10.7269
less	-10.7274
fat	-10.7297
laku	-10.731
eluarkan	-10.7316
mil	-10.7328
tangkap	-10.7338
cepat	-10.7339
komitmen	-10.7341
daerah	-10.7341
pengen	-10.7344
sama	-10.7366
sha	-10.7369
▁sj	-10.7384
andung	-10.7393
arti	-10.74
data	-10.7404
▁saiful	-10.7415
▁tekatekuis	-10.7415
▁anggrek	-10.7415
▁berbicara	-10.7415
▁berkomunikasi	-10.7415
▁blibli	-10.7415
▁ditutup	-10.7415
▁fashion	-10.7415
▁goblok	-10.7415
▁jadwal	-10.7415
▁ketenangan	-10.7415
▁kolektor	-10.7415
▁konsisten	-10.7415
▁kwitansi	-10.7415
▁lembaga	-10.7415
▁mendorong	-10.7415
▁merenung	-10.7415
▁pedagang	-10.7415
▁perkenalkan	-10.7415
▁secangkir	-10.7415
▁betty	-10.7415
▁daging	-10.7415
▁gopay	-10.7415
▁joget	-10.7415
▁velg	-10.7415
▁penulis	-10.7415
▁perlindungan	-10.7415
▁ready	-10.7415
▁dihapus	-10.7415
▁kesabaran	-10.7415
▁menentu	-10.7415
▁dibales	-10.7415
▁korea	-10.7415
▁alesan	-10.7415
▁desember	-10.7415
▁durinya	-10.7415
▁varian	-10.7415
▁kendala	-10.7415
▁diharapkan	-10.7415
▁dicari	-10.7415
▁memberatkan	-10.7415
▁didekat	-10.7415
▁dbs	-10.7416
▁disebut	-10.7416
▁kertas	-10.7416
▁black	-10.7416
▁knapa	-10.7416
▁nyasar	-10.7416
▁bandit	-10.7416
▁pepatah	-10.7417
▁ogah	-10.7417
bunuh	-10.7418
▁kelen	-10.7418
▁haram	-10.7419
▁sawah	-10.7419
▁berserakan	-10.7419
▁terjangkau	-10.7421
▁subuh	-10.7421
▁almer	-10.7421
▁anjas	-10.7422
▁person	-10.7422
▁shampoo	-10.7422
▁soci	-10.7424
▁lombalomba	-10.7426
▁mengatasi	-10.7426
▁ngakak	-10.7426
▁ceria	-10.7427
▁rin	-10.7427
▁last	-10.7428
▁wahai	-10.7428
▁thx	-10.7428
▁menutupi	-10.7429
▁web	-10.7429
▁tiang	-10.7431
▁itc	-10.7431
▁fitri	-10.744
▁ksh	-10.7442
▁bentar	-10.7444
lana	-10.7445
▁asri	-10.7448
▁kedamaian	-10.7449
▁muak	-10.745
▁mini	-10.7452
▁brand	-10.7453
▁teriak	-10.7453
▁riang	-10.7455
▁daftarnya	-10.7458
▁giveawaynya	-10.7464
▁apk	-10.7465
▁mant	-10.7466
▁masb	-10.7467
▁pelan	-10.7468
nga	-10.747
ujung	-10.747
▁mega	-10.7473
▁sediakan	-10.7475
▁penjajahan	-10.7476
enggara	-10.7482
▁menjelajahi	-10.7493
hayati	-10.7502
▁garing	-10.7515
▁harapkan	-10.7518
▁sebel	-10.7519
▁nda	-10.752
▁kasihan	-10.752
rm	-10.7521
▁dipercaya	-10.7526
▁kw	-10.7539
▁knpa	-10.754
▁jamu	-10.7542
kenang	-10.7552
▁istriku	-10.7554
▁terpa	-10.7559
▁lan	-10.7572
▁iri	-10.7579
▁jalanan	-10.758
▁ps	-10.7582
▁roh	-10.7583
▁bolak	-10.7586
sinar	-10.7589
▁visi	-10.7591
uiz	-10.7595
▁balasan	-10.7597
log	-10.7604
▁digunung	-10.7608
▁mei	-10.7611
numpang	-10.7618
dia	-10.7643
▁kutunya	-10.7648
teng	-10.7651
▁des	-10.7658
▁sapu	-10.7674
▁sial	-10.7677
▁lanjutkan	-10.769
▁cuy	-10.7701
pantai	-10.7702
belakang	-10.7712
▁konsumennya	-10.7717
▁kala	-10.7722
udah	-10.774
putri	-10.7749
buat	-10.7755
▁penagihannya	-10.7776
tia	-10.7782
▁jelasin	-10.7791
▁amal	-10.7792
▁sila	-10.7794
▁cintai	-10.78
kala	-10.7818
ach	-10.7822
▁megang	-10.7828
▁amati	-10.7828
▁bangettt	-10.7852
▁sampaikan	-10.7857
ima	-10.7857
deng	-10.7865
▁has	-10.7865
▁toh	-10.7871
besar	-10.7891
awasi	-10.7904
bukti	-10.7915
fungsi	-10.7927
buruburu	-10.7928
ketuk	-10.7931
putra	-10.7932
keliling	-10.7947
▁goreng	-10.7952
uka	-10.7954
▁credits	-10.7955
▁kejam	-10.7959
juta	-10.7959
hrus	-10.797
▁airnya	-10.7974
▁nyoba	-10.7979
▁ditelepon	-10.7979
▁mutu	-10.7985
pula	-10.7987
▁sihh	-10.7988
kang	-10.7997
▁tlf	-10.8002
▁silaturah	-10.8003
▁costumer	-10.8003
▁diperbaiki	-10.8003
▁finansial	-10.8003
▁gelisah	-10.8003
▁kepentingan	-10.8003
▁manajemen	-10.8003
▁mengejar	-10.8003
▁pencipta	-10.8003
▁sesajen	-10.8003
▁sirkus	-10.8003
▁skripsi	-10.8003
▁special	-10.8003
▁spesifikasi	-10.8003
▁dribling	-10.8003
▁rontok	-10.8003
▁sanggup	-10.8003
▁dangdut	-10.8003
▁perbuatan	-10.8003
▁denpasar	-10.8003
▁from	-10.8003
▁rokok	-10.8003
▁jabatan	-10.8003
▁didatangi	-10.8003
▁pemasukan	-10.8003
▁pesen	-10.8003
▁ijin	-10.8003
▁laser	-10.8003
▁dsini	-10.8003
▁terkini	-10.8003
▁musuh	-10.8003
▁ucapan	-10.8003
▁mengharu	-10.8004
▁santan	-10.8004
▁track	-10.8004
▁brapa	-10.8005
▁kontraksaya	-10.8006
▁merubah	-10.8006
▁nikung	-10.8006
▁every	-10.8007
▁giat	-10.8007
▁kmren	-10.8007
▁petugas	-10.8007
▁realme	-10.8007
▁bnr	-10.8007
drop	-10.8008
▁caca	-10.8008
▁mudahmudah	-10.8008
▁dewi	-10.8009
bujur	-10.8011
▁maret	-10.8011
▁turis	-10.8011
▁genteng	-10.8012
▁rekam	-10.8013
▁surya	-10.8013
sapa	-10.8014
▁gpp	-10.8014
▁tegang	-10.8014
▁seger	-10.8016
▁mul	-10.8018
▁original	-10.8019
▁mewah	-10.802
▁pelit	-10.8022
▁umr	-10.8023
▁nich	-10.8025
▁kurnia	-10.8025
lewat	-10.8025
▁ciri	-10.8025
▁palu	-10.8026
▁duka	-10.8029
▁ketidak	-10.8032
ekadar	-10.8033
▁blog	-10.8033
▁shoot	-10.8035
▁ampat	-10.8037
▁apalg	-10.804
▁ideal	-10.804
▁sosok	-10.8042
▁sarang	-10.8048
▁dadakan	-10.8049
▁pelajaran	-10.8049
▁odong	-10.8056
▁tlponin	-10.8057
▁henti	-10.8059
gr	-10.8063
ersaing	-10.8064
semoga	-10.807
▁mrt	-10.8075
nsi	-10.8082
▁skali	-10.8088
ture	-10.809
▁sayuran	-10.8093
▁penja	-10.8098
▁aje	-10.8101
▁out	-10.8104
▁berperan	-10.8109
ntung	-10.8112
▁don	-10.8113
▁adu	-10.8126
▁daru	-10.813
cam	-10.815
▁dika	-10.8156
▁hah	-10.8157
▁loga	-10.8171
▁bisaaa	-10.8174
▁tawar	-10.8177
lak	-10.818
▁kerang	-10.8181
ext	-10.8183
▁hamba	-10.819
sul	-10.8197
ago	-10.8204
▁sadari	-10.8207
ven	-10.8209
▁kelas	-10.8228
▁yh	-10.8238
▁bgi	-10.8262
rung	-10.8264
▁but	-10.8285
▁bertema	-10.8289
▁yuu	-10.8294
▁neh	-10.8296
▁indr	-10.8299
▁rencananya	-10.8303
eserta	-10.8304
ase	-10.831
▁daftarkan	-10.8316
rna	-10.8332
gila	-10.8335
▁instal	-10.8364
▁meme	-10.8368
yar	-10.8375
▁seketika	-10.838
kumpul	-10.8381
aahh	-10.8386
▁par	-10.8396
perdana	-10.8403
▁tang	-10.8412
▁art	-10.8415
▁sam	-10.8427
▁dmna	-10.8434
▁linta	-10.844
▁pacarnya	-10.8467
▁bit	-10.8475
gap	-10.8482
▁pembayarannya	-10.8485
punya	-10.8497
laporin	-10.8502
ngkat	-10.8502
for	-10.8517
byk	-10.8524
gala	-10.8539
tiap	-10.8548
alih	-10.8553
▁pay	-10.8553
bentuk	-10.8554
wajah	-10.8554
pernah	-10.8554
▁biarkan	-10.8557
▁curigai	-10.8563
himi	-10.8572
▁pant	-10.8572
taruh	-10.8574
amankan	-10.8579
day	-10.8581
minum	-10.8592
lesai	-10.8615
▁bertu	-10.8618
olom	-10.8618
▁tam	-10.8624
▁alfamart	-10.8628
▁anniversary	-10.8628
▁berkeliaran	-10.8628
▁berminyak	-10.8628
▁berprestasi	-10.8628
▁explor	-10.8628
▁fauzi	-10.8628
▁golput	-10.8628
▁kampret	-10.8628
▁keberkahan	-10.8628
▁kendaraan	-10.8628
▁kuitansi	-10.8628
▁menakutkan	-10.8628
▁nusantara	-10.8628
▁offline	-10.8628
▁parangtritis	-10.8628
▁pemberitahuan	-10.8628
▁refund	-10.8628
▁reject	-10.8628
▁sperti	-10.8628
▁subscribe	-10.8628
▁tercipta	-10.8628
▁urgent	-10.8628
▁violline	-10.8628
▁wisuda	-10.8628
▁yanuar	-10.8628
▁bermimpi	-10.8628
▁dipinggir	-10.8628
▁hoby	-10.8628
▁konsep	-10.8628
▁leasing	-10.8628
▁ojol	-10.8628
▁sepenuh	-10.8628
▁dicelana	-10.8628
▁dimatiin	-10.8628
▁mengharapkan	-10.8628
▁metode	-10.8628
▁mistis	-10.8628
▁muncak	-10.8628
▁neraka	-10.8628
▁aspek	-10.8628
▁bismilah	-10.8628
▁lengah	-10.8628
▁mengucapkan	-10.8628
▁nebak	-10.8628
▁sweet	-10.8628
▁ancol	-10.8628
▁fisik	-10.8628
▁siluman	-10.8628
▁pahit	-10.8628
▁bergaya	-10.8628
▁why	-10.8628
▁peraturan	-10.8628
▁idaman	-10.8628
▁tmn	-10.8628
▁fresh	-10.8628
place	-10.8628
▁what	-10.8628
▁logika	-10.8628
▁ikh	-10.8629
▁ksp	-10.8629
▁ramadan	-10.8629
▁mancur	-10.8629
▁menyenggol	-10.8629
▁memesan	-10.863
▁topup	-10.863
▁menyelam	-10.8631
▁yuuuk	-10.8631
illa	-10.8631
▁banana	-10.8632
undangan	-10.8632
hindar	-10.8632
▁sawo	-10.8632
▁batik	-10.8633
▁ladang	-10.8634
▁berhadiah	-10.8635
unting	-10.8635
▁raih	-10.8637
▁esok	-10.8637
andalkan	-10.864
▁gemana	-10.864
▁miss	-10.8641
ies	-10.8643
▁that	-10.8643
lengkap	-10.8644
▁renovasi	-10.8645
▁hadapi	-10.8648
▁berbuat	-10.8648
▁park	-10.8649
▁pemen	-10.8649
▁har	-10.8649
▁tertib	-10.865
▁isti	-10.8651
▁lh	-10.8652
▁pelukan	-10.8654
▁pemer	-10.8654
▁menaik	-10.8655
▁kubur	-10.8657
▁manado	-10.8659
lintas	-10.8659
aian	-10.8661
▁pokonya	-10.8663
▁mera	-10.8663
▁jln	-10.8664
▁puasa	-10.8668
▁tamu	-10.8668
▁keredit	-10.8671
angsur	-10.8674
▁gokil	-10.8674
▁kemari	-10.8678
eni	-10.8686
▁simak	-10.8691
▁hadi	-10.8694
▁cus	-10.8694
umbu	-10.8695
▁kepula	-10.8698
▁umumin	-10.8703
▁fo	-10.8711
▁meriahkan	-10.8714
▁tipi	-10.8716
▁masd	-10.8722
▁menangis	-10.8725
▁pelayanannya	-10.8726
▁hiya	-10.8726
▁lintas	-10.8729
▁menimb	-10.8742
amati	-10.8742
▁pel	-10.8744
▁yng	-10.8747
▁hang	-10.8747
▁demit	-10.875
nas	-10.8756
mari	-10.8758
▁tokoh	-10.8759
▁sampingan	-10.876
▁ahhh	-10.876
nggil	-10.8768
▁ibuku	-10.8769
ngkar	-10.8773
▁cin	-10.8773
▁mence	-10.8776
▁tb	-10.8776
gram	-10.8787
oooooo	-10.8803
mbi	-10.8814
ers	-10.8828
timbang	-10.883
▁suamiku	-10.8831
▁ketuk	-10.8839
dg	-10.8839
▁basi	-10.8859
yanti	-10.8861
▁kering	-10.8877
ish	-10.8893
▁ngo	-10.8898
▁hore	-10.8906
ember	-10.8916
▁paru	-10.892
▁gula	-10.892
▁bela	-10.893
▁kameranya	-10.8941
▁ts	-10.8958
wt	-10.8958
▁ajh	-10.8958
▁fik	-10.8963
▁gaesss	-10.8966
ntra	-10.8967
▁nst	-10.8971
▁alamnya	-10.8978
▁csnya	-10.8989
▁nutup	-10.9003
▁ketemuan	-10.9009
▁bangett	-10.9013
▁cuk	-10.9022
erjakan	-10.9027
▁layaknya	-10.9077
▁ikat	-10.9085
▁net	-10.9097
tua	-10.91
▁aduhh	-10.9115
▁dendanya	-10.9122
▁ob	-10.9132
mbr	-10.9155
▁halu	-10.9156
▁atur	-10.9156
▁are	-10.916
kiri	-10.9162
mpat	-10.9169
▁pekan	-10.9173
jaan	-10.9181
▁nie	-10.9182
▁hy	-10.9187
ampung	-10.9196
▁seruu	-10.9201
▁rasakan	-10.9204
birit	-10.9206
▁pelajar	-10.921
wijaya	-10.9219
▁omong	-10.9229
▁rekan	-10.9236
▁cat	-10.9239
▁postingannya	-10.9246
bakar	-10.9271
▁wahh	-10.9273
▁flexy	-10.9283
jemput	-10.9289
▁heheh	-10.9292
senggol	-10.9294
nostalgia	-10.9295
▁approve	-10.9295
▁berbedabeda	-10.9295
▁briptu	-10.9295
▁chintiadevi	-10.9295
▁counter	-10.9295
▁dampak	-10.9295
▁deadline	-10.9295
▁dijakarta	-10.9295
▁ditawarkan	-10.9295
▁follback	-10.9295
▁gugur	-10.9295
▁infrastruktur	-10.9295
▁kabupaten	-10.9295
▁meminimalisir	-10.9295
▁mempromosikan	-10.9295
▁menggapai	-10.9295
▁menghantui	-10.9295
▁november	-10.9295
▁pontianak	-10.9295
▁sempurna	-10.9295
▁sulawesi	-10.9295
▁tertidur	-10.9295
▁zackarya	-10.9295
▁curug	-10.9295
▁domino	-10.9295
▁hastag	-10.9295
▁jurusan	-10.9295
▁loncat	-10.9295
▁owner	-10.9295
▁peninggalan	-10.9295
▁reseller	-10.9295
▁unggun	-10.9295
▁cemilan	-10.9295
▁menatap	-10.9295
▁pingsan	-10.9295
▁delman	-10.9295
▁amiiin	-10.9295
▁bantal	-10.9295
▁receh	-10.9295
▁block	-10.9295
▁keganggu	-10.9295
▁memecah	-10.9295
▁titip	-10.9295
▁materi	-10.9295
▁aroma	-10.9295
▁mace	-10.9295
▁berlebihan	-10.9295
▁durian	-10.9295
▁kejutan	-10.9295
▁berenti	-10.9295
▁dinikmati	-10.9295
▁sepoi	-10.9295
▁krupuk	-10.9295
▁menantang	-10.9295
▁nelepon	-10.9295
▁pengambil	-10.9296
ground	-10.9296
▁cream	-10.9296
▁have	-10.9296
▁lampir	-10.9296
▁daster	-10.9297
▁menghibur	-10.9297
▁membuang	-10.9297
▁menanam	-10.9297
▁pinter	-10.9297
▁comment	-10.9297
▁bapakibu	-10.9298
▁bpkb	-10.9298
▁suster	-10.9298
▁pandawa	-10.9298
▁kambing	-10.9298
▁kantung	-10.9299
▁cover	-10.9299
▁mengalami	-10.9299
nyiksa	-10.93
▁hiking	-10.93
▁pertimbang	-10.93
▁mengamati	-10.9301
▁harum	-10.9302
fahmi	-10.9302
▁percobaan	-10.9303
▁anjir	-10.9303
▁keringat	-10.9304
▁saksi	-10.9305
▁hawa	-10.9305
▁bersamasama	-10.9306
▁kandung	-10.9308
▁yuhuu	-10.9309
▁berinovasi	-10.9311
▁puncaknya	-10.9313
▁sesat	-10.9313
▁thun	-10.9315
▁terlupakan	-10.9316
▁kebeli	-10.9317
ologi	-10.9317
▁ahli	-10.9317
▁abadikan	-10.9317
▁teruss	-10.9319
▁laen	-10.9319
▁kerinci	-10.9321
▁bumbu	-10.9323
erniat	-10.9324
▁pede	-10.933
▁menyak	-10.9331
iarah	-10.9333
▁ulat	-10.9334
vin	-10.9335
▁susi	-10.9335
agian	-10.9343
▁ketauan	-10.9346
▁tusuk	-10.9346
▁tah	-10.9346
cc	-10.9347
▁kurus	-10.9354
▁sapi	-10.9355
bro	-10.9357
▁favorite	-10.9357
▁bayang	-10.936
▁candi	-10.9361
▁adi	-10.9377
▁yess	-10.9377
dih	-10.9378
▁tunjukk	-10.9379
▁bae	-10.938
bayar	-10.9383
late	-10.9384
uguh	-10.9385
▁taruh	-10.9389
▁hiii	-10.9397
▁pot	-10.9408
▁ham	-10.9419
seluruh	-10.9419
ilang	-10.9421
▁disimpan	-10.9425
▁sobekan	-10.9425
▁manfaatkan	-10.9427
▁bm	-10.9429
▁dikampung	-10.9431
▁dihome	-10.9441
▁dwi	-10.9441
▁ditanyakan	-10.9447
por	-10.9456
▁hitungan	-10.9461
▁hayo	-10.9463
▁keindahannya	-10.9463
▁rebu	-10.9472
setara	-10.9477
▁gran	-10.9482
▁angg	-10.9487
▁duitnya	-10.9491
▁lala	-10.9492
asah	-10.9493
▁plan	-10.9527
▁cas	-10.9529
lalu	-10.9541
▁ceritaku	-10.9549
▁orderan	-10.9555
▁eaaa	-10.9563
▁dicek	-10.9582
mpah	-10.959
▁esa	-10.9618
▁agustusan	-10.9619
▁kya	-10.9638
tekad	-10.9646
▁tes	-10.9648
cat	-10.965
mg	-10.9657
oper	-10.966
ukur	-10.9668
lusi	-10.9674
▁loan	-10.9674
rangan	-10.9676
▁lag	-10.9676
▁ten	-10.9683
▁komp	-10.9689
▁cok	-10.9698
foto	-10.97
astuti	-10.9702
tempat	-10.9703
▁teka	-10.9704
dai	-10.9716
▁nangk	-10.9721
▁mon	-10.9726
tam	-10.973
upa	-10.9743
▁miin	-10.9744
▁alm	-10.9747
bantu	-10.9757
▁memba	-10.9758
▁sara	-10.9761
ucap	-10.978
▁responnya	-10.9791
mbil	-10.9796
ngen	-10.9799
▁tong	-10.9813
erma	-10.9826
elin	-10.9831
bawa	-10.9834
ampaikan	-10.9834
▁penge	-10.9841
▁kain	-10.985
▁win	-10.9854
▁menyan	-10.9872
isme	-10.988
▁menyusu	-10.9883
▁baiklah	-10.9885
▁tar	-10.9892
▁prioritas	-10.9911
▁euy	-10.9915
harga	-10.9916
lanjutkan	-10.9924
▁bet	-10.993
yer	-10.9933
cantumkan	-10.9933
kuter	-10.9941
back	-10.9946
sma	-10.995
▁suda	-10.9951
▁kembalikan	-10.9952
▁pojok	-10.9955
▁pekerja	-10.9956
▁seleb	-10.9962
▁febri	-10.9966
▁kakinya	-10.9966
▁dukun	-10.9977
diam	-10.999
bangsa	-10.9991
dalam	-10.9997
dana	-11.0001
▁wl	-11.0003
ferensi	-11.0007
▁keputusan	-11.0009
▁ketombe	-11.0009
▁mempelajari	-11.0009
▁mensyukuri	-11.0009
▁ngebayangin	-11.0009
▁ongkos	-11.0009
▁peringatan	-11.0009
▁prinsip	-11.0009
▁prosedur	-11.0009
▁trawangan	-11.0009
▁berpantun	-11.0009
▁binatang	-11.0009
▁digibank	-11.0009
▁disiplin	-11.0009
▁ibarat	-11.0009
▁jabodetabek	-11.0009
▁karakter	-11.0009
▁karawang	-11.0009
▁keberagaman	-11.0009
▁keterlambatan	-11.0009
▁magrib	-11.0009
▁masjid	-11.0009
▁menuntut	-11.0009
▁merbabu	-11.0009
▁negatif	-11.0009
▁oktober	-11.0009
▁perpecahan	-11.0009
▁satpam	-11.0009
▁second	-11.0009
▁shopping	-11.0009
▁stabil	-11.0009
▁sumatera	-11.0009
▁system	-11.0009
▁teknisi	-11.0009
▁terdahulu	-11.0009
▁tertutup	-11.0009
▁traktir	-11.0009
▁ojek	-11.0009
▁santuy	-11.0009
▁semilir	-11.0009
▁bijaksana	-11.0009
▁keamanan	-11.0009
▁kebahagian	-11.0009
▁kesayangan	-11.0009
▁menyanyi	-11.0009
▁ngesot	-11.0009
▁ongkir	-11.0009
▁simbol	-11.0009
▁peninggi	-11.0009
▁tersayang	-11.0009
▁bermasalah	-11.0009
▁semisal	-11.0009
langsing	-11.0009
lindung	-11.0009
▁memanggil	-11.0009
▁otw	-11.0009
▁skill	-11.0009
▁sungai	-11.0009
▁lorong	-11.0009
▁mentingin	-11.0009
▁berduri	-11.0009
▁dibidang	-11.0009
▁merinti	-11.0009
▁membeda	-11.0009
▁sunyi	-11.0009
▁bertabrakan	-11.0009
▁baby	-11.0009
▁coffe	-11.0009
▁ditipu	-11.0009
▁gerik	-11.0009
▁teringat	-11.0009
▁oiya	-11.0009
▁rumus	-11.0009
▁berkilau	-11.0009
▁seenaknya	-11.0009
▁rincian	-11.0009
▁fyi	-11.0009
▁melotot	-11.0009
▁impor	-11.0009
▁chanel	-11.0009
▁minsay	-11.001
▁disadari	-11.001
▁pitam	-11.001
▁pembantu	-11.001
▁fidah	-11.001
▁girang	-11.001
▁menjaja	-11.001
▁kemenyan	-11.0011
bungkus	-11.0011
ora	-11.0011
▁pertiwi	-11.0011
▁kalangan	-11.0011
▁angker	-11.0012
▁gudang	-11.0012
▁cincin	-11.0012
▁doank	-11.0013
▁benci	-11.0013
racun	-11.0013
▁pamer	-11.0013
▁karir	-11.0014
▁gonta	-11.0014
▁smart	-11.0014
ningsih	-11.0015
▁item	-11.0015
▁kesah	-11.0015
▁menjemput	-11.0015
▁city	-11.0015
▁masker	-11.0016
▁sport	-11.0016
▁nlpon	-11.0016
▁screen	-11.0016
▁setiawan	-11.0017
▁semut	-11.0018
▁yth	-11.0018
▁triani	-11.0019
▁makna	-11.002
▁bibir	-11.0021
▁face	-11.0021
▁bag	-11.0022
▁ngikutin	-11.0022
udin	-11.0022
▁macet	-11.0025
▁card	-11.0025
▁psti	-11.0025
ueen	-11.0026
▁berkerja	-11.0026
▁telur	-11.0028
▁gombal	-11.0029
rendam	-11.003
▁nmbh	-11.0031
▁gmana	-11.0031
▁menawan	-11.0033
syah	-11.0034
kaitan	-11.0035
▁lontong	-11.0042
▁tuna	-11.0044
▁hancur	-11.0046
▁mengarah	-11.0047
▁omg	-11.0048
▁skli	-11.0051
▁yeee	-11.0052
▁solo	-11.0052
▁gagak	-11.0055
▁sebutin	-11.0057
▁cutter	-11.0057
▁kayu	-11.0058
▁ulu	-11.0058
▁kanza	-11.006
▁try	-11.0062
▁inter	-11.0062
▁lirik	-11.0072
▁dpet	-11.0072
▁mering	-11.0078
▁jawabanny	-11.0081
jangan	-11.0084
▁makasi	-11.0087
▁itik	-11.0089
▁amit	-11.0092
▁iseng	-11.0096
▁cusss	-11.0096
▁ajarin	-11.0098
▁buset	-11.0098
bath	-11.0099
reng	-11.0104
ajarkan	-11.0112
▁pahami	-11.0123
▁bung	-11.0137
ble	-11.0137
▁tangkap	-11.0139
▁sw	-11.0142
▁dilirik	-11.0144
▁matr	-11.0159
▁digantung	-11.0168
▁versiku	-11.0174
▁her	-11.0174
▁mantapp	-11.0182
▁bec	-11.02
aann	-11.0202
▁pema	-11.0217
▁serang	-11.022
yani	-11.023
▁impianku	-11.0245
▁yuukk	-11.025
amping	-11.0271
tol	-11.0271
▁matiin	-11.0289
▁pertand	-11.0294
▁gamer	-11.0297
▁harimaunya	-11.0298
▁lainya	-11.0303
▁comp	-11.033
▁laba	-11.0337
▁row	-11.0337
▁gru	-11.0346
onik	-11.0347
▁cpt	-11.0353
▁keje	-11.0364
app	-11.0368
erem	-11.0371
▁nihh	-11.0377
nb	-11.0392
duh	-11.0393
▁tawa	-11.0419
▁lol	-11.042
ulus	-11.0422
▁slo	-11.0425
▁hidupku	-11.0434
▁urusannya	-11.0439
wahab	-11.045
▁napa	-11.0456
▁ngomongnya	-11.0464
dong	-11.0471
ura	-11.0475
thing	-11.0481
▁hiru	-11.0482
lalui	-11.0501
ufa	-11.0532
home	-11.0535
▁goda	-11.0544
lih	-11.0545
suka	-11.0545
▁guyss	-11.0551
emantau	-11.0577
▁rs	-11.0579
gantung	-11.0604
▁kesan	-11.0614
ansyah	-11.0652
▁mp	-11.0652
baik	-11.0671
credit	-11.0674
rih	-11.0676
malam	-11.0682
harap	-11.0689
▁conte	-11.0698
oren	-11.0699
shop	-11.07
sedekah	-11.0703
▁tema	-11.0703
ngt	-11.0703
komentar	-11.0704
tumpah	-11.0705
sejahtera	-11.0709
loh	-11.0724
pasang	-11.073
▁pil	-11.0734
aktif	-11.0737
daun	-11.0738
▁ngeru	-11.0748
▁manta	-11.075
encana	-11.0756
sya	-11.0757
▁belaka	-11.0758
inovasi	-11.0759
ypro	-11.0766
▁cie	-11.0768
▁blok	-11.0777
▁dtlp	-11.0777
refresh	-11.0778
cukupi	-11.0778
dedikasi	-11.0778
skriminasi	-11.0778
uality	-11.0778
▁blender	-11.0778
▁bpjs	-11.0778
▁capturan	-11.0778
▁channel	-11.0778
▁detergen	-11.0778
▁didunia	-11.0778
▁dijawab	-11.0778
▁elektrik	-11.0778
▁flexyfast	-11.0778
▁fujifilm	-11.0778
▁global	-11.0778
▁inspiratif	-11.0778
▁istimewa	-11.0778
▁kalender	-11.0778
▁keseruan	-11.0778
▁kluarga	-11.0778
▁maimun	-11.0778
▁membanggakan	-11.0778
▁memperkenalkan	-11.0778
▁menjanjikan	-11.0778
▁ngirim	-11.0778
▁pabrik	-11.0778
▁refleks	-11.0778
▁report	-11.0778
▁strategi	-11.0778
▁tercantum	-11.0778
▁terlampaui	-11.0778
▁terpenuhi	-11.0778
▁cuaca	-11.0778
▁lukisan	-11.0778
▁pangandaran	-11.0778
▁reward	-11.0778
▁tertinggal	-11.0778
▁first	-11.0778
▁husna	-11.0778
▁mempererat	-11.0778
▁menghindari	-11.0778
▁sensasi	-11.0778
▁sentosa	-11.0778
▁tertipu	-11.0778
▁dipanjat	-11.0778
▁rintangan	-11.0778
▁sesekali	-11.0778
▁bokek	-11.0778
▁daily	-11.0778
▁hendra	-11.0778
▁mreka	-11.0778
▁kecantikan	-11.0778
▁sumur	-11.0778
▁kasur	-11.0778
▁pikuk	-11.0778
▁selera	-11.0778
▁kesulitan	-11.0778
▁bpkibu	-11.0778
▁meminang	-11.0778
▁secepatnya	-11.0778
▁mksd	-11.0778
▁temukan	-11.0778
▁kampus	-11.0778
▁kerabat	-11.0778
▁partner	-11.0779
▁profesionalisme	-11.0779
▁kemauan	-11.0779
▁bercerita	-11.0779
puasan	-11.0779
▁mertua	-11.0779
▁women	-11.078
▁dihati	-11.078
▁rekreasi	-11.078
▁ngilang	-11.078
▁polos	-11.078
▁gusti	-11.0781
▁bagas	-11.0781
▁catok	-11.0781
▁tembus	-11.0782
▁cakep	-11.0783
▁jarak	-11.0784
▁goyang	-11.0784
▁spek	-11.0784
mpuh	-11.0785
arcel	-11.0786
▁busway	-11.0786
▁wujud	-11.0787
▁eits	-11.0788
▁berambut	-11.0788
▁juang	-11.0788
▁well	-11.0789
▁step	-11.0789
▁waduh	-11.079
▁kabul	-11.0791
▁lubang	-11.0792
▁gituuuu	-11.0795
▁brewokan	-11.0797
▁ngumpul	-11.0798
patah	-11.0799
gerai	-11.0799
▁berlalu	-11.08
tama	-11.0802
▁liar	-11.0802
▁scr	-11.0803
▁tuntut	-11.0806
▁berbulan	-11.0808
▁mlh	-11.0809
▁agent	-11.0809
▁pesat	-11.081
▁work	-11.0812
rok	-11.0813
▁nisan	-11.0819
▁ikutin	-11.0822
▁spg	-11.0822
njuk	-11.0822
aneka	-11.0824
▁padi	-11.0825
batas	-11.0827
▁tawarkan	-11.0829
putar	-11.0829
▁dendam	-11.0831
▁jambu	-11.0832
▁wakil	-11.0837
▁nlpn	-11.0837
▁beragama	-11.0839
▁mengaku	-11.0841
▁banten	-11.0842
bed	-11.0843
▁fol	-11.0846
▁dilunasi	-11.0847
▁fun	-11.0853
▁batang	-11.086
▁bersi	-11.0867
tahu	-11.0868
▁dibangun	-11.0869
lepon	-11.087
▁tip	-11.0874
sangka	-11.0878
▁gigit	-11.088
▁anna	-11.0881
onfirmasi	-11.0881
▁tangisan	-11.0891
▁papan	-11.0894
▁diakhir	-11.0897
▁saka	-11.0898
▁percayalah	-11.09
▁tlpnin	-11.0901
▁duhh	-11.0902
▁gela	-11.0907
dot	-11.0912
▁dijaga	-11.0912
▁tumbuhan	-11.0917
lambang	-11.0921
▁minjam	-11.0928
▁budi	-11.0931
lahir	-11.0935
▁hail	-11.0945
mbing	-11.095
lham	-11.0953
▁sblmnya	-11.0962
kokoh	-11.0964
kerja	-11.0988
mmmm	-11.1007
▁lanjutin	-11.1011
▁formul	-11.1019
rebus	-11.1048
▁end	-11.1052
▁wal	-11.1052
inggung	-11.1058
▁ibuu	-11.1061
▁ayuk	-11.1069
daya	-11.1085
hhhhhh	-11.1089
rj	-11.109
aro	-11.1091
lakukan	-11.1093
▁kecilku	-11.1103
ilat	-11.1106
arif	-11.1106
rika	-11.111
▁peman	-11.1116
▁ayolah	-11.1129
▁wang	-11.1133
▁invest	-11.1136
▁penjelasannya	-11.1154
intip	-11.1164
▁alih	-11.1183
▁broo	-11.1197
oco	-11.1207
tunda	-11.1208
juk	-11.1208
▁abu	-11.1213
able	-11.1238
▁tengg	-11.1246
▁ori	-11.1279
arry	-11.1288
▁your	-11.1288
enting	-11.1305
abah	-11.1328
realisasikan	-11.1351
percaya	-11.1358
▁menump	-11.1369
epet	-11.1369
▁hayuk	-11.1381
▁stres	-11.1382
▁yahh	-11.1388
yana	-11.1391
▁berhasi	-11.1403
▁ente	-11.1418
tlh	-11.1422
mbung	-11.1427
▁aw	-11.1433
nnnn	-11.1442
jual	-11.1458
kampung	-11.149
wujud	-11.1501
gede	-11.1507
henti	-11.1519
▁kesimpulan	-11.1528
phone	-11.1531
gelas	-11.1533
kreasi	-11.1534
ceritakan	-11.1536
gendong	-11.1536
update	-11.1537
sahabat	-11.1537
kesempatan	-11.1537
langsung	-11.1538
rambut	-11.154
▁mat	-11.1547
yg	-11.1548
▁cemp	-11.1564
▁rupa	-11.1568
▁lebar	-11.157
▁colek	-11.1578
▁rambu	-11.1595
esign	-11.1597
age	-11.16
motivasi	-11.1602
ontrol	-11.1602
▁cre	-11.1603
firm	-11.1606
▁informa	-11.1607
▁kinerja	-11.1611
▁ngeganggu	-11.1611
▁ngerjain	-11.1611
▁pemasaran	-11.1611
▁rezeky	-11.1611
▁tenggelam	-11.1611
▁terbiasa	-11.1611
▁awkkwwkk	-11.1611
▁baterai	-11.1611
▁bencong	-11.1611
▁berolahraga	-11.1611
▁cancel	-11.1611
▁diabadikan	-11.1611
▁dirugikan	-11.1611
▁domisili	-11.1611
▁dslr	-11.1611
▁friend	-11.1611
▁goodluck	-11.1611
▁gundul	-11.1611
▁headset	-11.1611
▁homcredit	-11.1611
▁industri	-11.1611
▁internasional	-11.1611
▁kebanggaan	-11.1611
▁kesusahan	-11.1611
▁koleksi	-11.1611
▁membandel	-11.1611
▁menyayangi	-11.1611
▁narkoba	-11.1611
▁ngitung	-11.1611
▁penggemuk	-11.1611
▁pesisir	-11.1611
▁pinjol	-11.1611
▁reksadana	-11.1611
▁romantis	-11.1611
▁seruseru	-11.1611
▁testimoni	-11.1611
▁world	-11.1611
▁bgmn	-11.1611
▁gombel	-11.1611
▁kepenatan	-11.1611
▁memasarkan	-11.1611
▁movie	-11.1611
▁pengecekan	-11.1611
▁petualangan	-11.1611
▁santet	-11.1611
▁sindikat	-11.1611
▁terpaksa	-11.1611
armstrong	-11.1611
▁keunikan	-11.1611
▁setinggi	-11.1611
▁bentol	-11.1611
▁bercanda	-11.1611
▁brosur	-11.1611
▁passion	-11.1611
▁sembako	-11.1611
▁ngejar	-11.1611
▁slamet	-11.1611
▁bambu	-11.1611
▁kepepet	-11.1611
▁impikan	-11.1611
▁memadai	-11.1611
▁pagar	-11.1611
▁tewas	-11.1611
▁didukung	-11.1611
▁mendirikan	-11.1611
▁bertiga	-11.1611
▁syariah	-11.1611
▁sandal	-11.1611
▁dorong	-11.1611
▁pemberi	-11.1611
▁sharing	-11.1611
▁sndiri	-11.1612
▁terjamin	-11.1612
▁point	-11.1612
▁dicoba	-11.1612
▁clue	-11.1612
▁backpacker	-11.1612
▁mengeluh	-11.1612
▁rmh	-11.1612
▁sangkutan	-11.1612
▁menurun	-11.1612
▁menelusu	-11.1612
gotong	-11.1612
▁tunjukan	-11.1612
▁kipas	-11.1613
▁lalapan	-11.1613
▁sarapan	-11.1613
▁action	-11.1613
▁dijelaskan	-11.1613
embalikan	-11.1613
▁pnting	-11.1613
▁ngepet	-11.1613
▁merebut	-11.1614
▁domba	-11.1614
▁mengurus	-11.1614
▁dimna	-11.1614
▁cerah	-11.1616
▁diingat	-11.1616
▁spring	-11.1616
▁mangsa	-11.1617
▁hepi	-11.1617
▁hening	-11.1617
▁kampang	-11.1617
▁berinvestasi	-11.1617
▁berwajib	-11.1617
▁only	-11.1618
▁hope	-11.1619
▁melengkapi	-11.162
▁perbanyak	-11.162
▁kelakuanya	-11.162
▁mengawasi	-11.162
▁jagung	-11.162
▁radit	-11.162
bareng	-11.1621
▁rahmat	-11.1621
▁ardianaii	-11.1622
▁hrga	-11.1622
▁degan	-11.1623
▁wib	-11.1624
▁will	-11.1624
ocok	-11.1625
▁hua	-11.1627
▁rice	-11.1627
▁kapal	-11.1627
▁adem	-11.1628
▁genks	-11.1628
▁muhammad	-11.1628
▁madu	-11.1629
▁reno	-11.1629
▁semacam	-11.163
abaikan	-11.163
▁dsni	-11.163
▁wassa	-11.163
▁berwujud	-11.1631
▁perayaan	-11.1631
▁yeah	-11.1631
▁bangke	-11.1632
▁juri	-11.1632
▁diacc	-11.1635
caci	-11.1636
▁prodak	-11.1636
▁deng	-11.1637
▁spiderman	-11.1637
▁seputar	-11.1638
▁tuker	-11.164
▁setempat	-11.1641
▁bunda	-11.1642
▁kolong	-11.1643
▁azi	-11.1643
▁zen	-11.1645
jepit	-11.1645
▁pete	-11.1648
pratama	-11.1651
▁waw	-11.1652
▁nada	-11.1653
▁bubur	-11.1653
anggep	-11.1654
▁semb	-11.1655
▁nyambung	-11.1656
▁bner	-11.1658
▁lawan	-11.1663
▁muter	-11.1663
▁spt	-11.1664
▁jerit	-11.1666
▁persiap	-11.1671
▁slm	-11.1674
▁slama	-11.1675
▁diaplikasi	-11.168
▁guling	-11.1681
▁rekanan	-11.1684
▁kesen	-11.169
▁kesimpulannya	-11.1695
▁bosku	-11.1699
▁provi	-11.1706
reen	-11.171
▁one	-11.1711
▁nma	-11.1712
ilik	-11.1714
sampai	-11.1715
▁rupiahkan	-11.1715
▁birit	-11.1715
▁akti	-11.1717
▁nelfonin	-11.1719
ayo	-11.1726
prioritaskan	-11.1728
urkan	-11.1734
▁cv	-11.1736
▁gantung	-11.1737
▁angs	-11.1737
▁mamat	-11.1741
▁menyala	-11.1748
tauan	-11.1753
alem	-11.177
▁mantab	-11.1772
bayangkan	-11.1779
▁sangka	-11.1785
▁gg	-11.1787
▁muluk	-11.1792
▁setau	-11.1793
▁akh	-11.1801
▁kediri	-11.1808
▁tepian	-11.1815
▁berisik	-11.1825
▁aga	-11.183
bahas	-11.183
▁okta	-11.1847
▁jajanan	-11.1848
pone	-11.1851
▁muat	-11.1857
▁bersen	-11.1867
gelap	-11.1874
odong	-11.1878
gerak	-11.1879
▁penggunaan	-11.1888
▁pala	-11.1889
▁maks	-11.1903
salam	-11.1913
▁jom	-11.1934
▁disc	-11.1936
uud	-11.1942
▁kuyyy	-11.1951
fir	-11.1962
ntk	-11.1973
kecil	-11.1975
hub	-11.1985
▁aminnn	-11.1997
normal	-11.2003
▁menyebar	-11.2009
ening	-11.2012
▁uj	-11.2026
▁mengelabu	-11.2045
▁menel	-11.2048
▁seni	-11.206
▁donggg	-11.2065
tikan	-11.2073
▁nanda	-11.2077
send	-11.2084
▁amiinn	-11.2085
lex	-11.2087
▁kab	-11.2106
alami	-11.2109
hsil	-11.2138
jay	-11.2142
▁yey	-11.2159
manis	-11.2165
tha	-11.2169
▁kebayang	-11.2181
▁eka	-11.2184
obek	-11.2192
maksimalkan	-11.2206
eksi	-11.2216
mulasi	-11.2242
mail	-11.2247
▁play	-11.2247
desak	-11.2253
lirik	-11.2275
▁tanggapi	-11.2278
tes	-11.2288
▁kaa	-11.2305
fif	-11.2307
alihkan	-11.2316
▁amb	-11.2318
▁wr	-11.2327
▁terik	-11.235
rz	-11.2358
▁vita	-11.2371
uyyy	-11.2384
▁had	-11.2392
ntum	-11.2394
karang	-11.2396
▁boy	-11.2401
▁les	-11.2409
noda	-11.2416
▁wkwkwkw	-11.242
fon	-11.2421
keluarga	-11.2421
onic	-11.2424
▁duku	-11.2427
ukuran	-11.2432
▁peka	-11.2433
▁heh	-11.2445
betul	-11.2446
nikmat	-11.2448
catat	-11.245
aaann	-11.2452
▁penagih	-11.2461
cetak	-11.2471
cair	-11.2472
▁urus	-11.2476
jelek	-11.2481
▁persatu	-11.2482
etis	-11.2485
lakuin	-11.2487
hambat	-11.2495
▁pija	-11.2496
▁menjal	-11.2497
chat	-11.2505
▁hny	-11.2507
nerima	-11.2511
jelajah	-11.2514
gegas	-11.2515
▁gilaaa	-11.2515
▁membu	-11.2516
▁tradisi	-11.252
▁dahsyat	-11.252
▁kompetisi	-11.252
▁mengantongi	-11.252
▁pencapain	-11.252
▁sponsor	-11.252
▁berpapasan	-11.252
▁berpenghasilan	-11.252
▁bertindak	-11.252
▁bukittinggi	-11.252
▁cibubur	-11.252
▁demokrasi	-11.252
▁electroni	-11.252
▁emergency	-11.252
▁energi	-11.252
▁fleksi	-11.252
▁holiday	-11.252
▁jelangkung	-11.252
▁kalengkaleng	-11.252
▁kebenaran	-11.252
▁keberhasilan	-11.252
▁kebingungan	-11.252
▁kebudayaan	-11.252
▁laundry	-11.252
▁lompatlompat	-11.252
▁menggigil	-11.252
▁menyetujui	-11.252
▁miscall	-11.252
▁multimedia	-11.252
▁ngejawab	-11.252
▁ontime	-11.252
▁otomotif	-11.252
▁pemikiran	-11.252
▁penelpon	-11.252
▁penyidik	-11.252
▁pondok	-11.252
▁puspita	-11.252
▁rileks	-11.252
▁riwayat	-11.252
▁selimut	-11.252
▁skincare	-11.252
▁televisi	-11.252
▁universit	-11.252
dipenuhi	-11.252
▁arbok	-11.252
▁estafet	-11.252
▁inbox	-11.252
▁kawankawan	-11.252
▁keceriaan	-11.252
▁misteri	-11.252
▁monyet	-11.252
▁pepohonan	-11.252
▁power	-11.252
▁sindoro	-11.252
▁cooker	-11.252
▁hotel	-11.252
▁mengirim	-11.252
▁taruna	-11.252
▁bocah	-11.252
▁perilaku	-11.252
▁cutee	-11.252
▁merapat	-11.252
▁rebon	-11.252
▁tampil	-11.252
▁tekuis	-11.252
▁teliti	-11.252
▁xiomi	-11.252
nyemangati	-11.252
▁depok	-11.252
▁preman	-11.252
▁pdkt	-11.2521
forensik	-11.2521
▁ketipu	-11.2521
▁keempat	-11.2521
▁moral	-11.2521
▁copet	-11.2521
▁duren	-11.2521
▁kebawah	-11.2521
▁gapapa	-11.2521
▁martaba	-11.2521
▁belitung	-11.2521
▁registrasi	-11.2521
▁azab	-11.2521
▁patung	-11.2521
▁banjir	-11.2521
▁resah	-11.2521
▁latihan	-11.2521
▁rapat	-11.2521
▁hindari	-11.2521
hadapan	-11.2521
▁novel	-11.2521
▁seandai	-11.2521
▁suudzon	-11.2521
▁kelamaan	-11.2521
▁penyedia	-11.2521
▁mental	-11.2521
▁genggaman	-11.2521
▁mudik	-11.2521
▁sempit	-11.2521
▁membalas	-11.2521
▁hehhe	-11.2521
khayal	-11.2522
▁dikerjakan	-11.2522
▁melamar	-11.2522
▁mengalir	-11.2522
tualang	-11.2522
▁mantuuu	-11.2522
▁penduduk	-11.2522
▁brisik	-11.2523
▁instagramable	-11.2523
▁mengeksplor	-11.2523
▁staff	-11.2523
▁hamil	-11.2523
▁hangus	-11.2523
▁kompor	-11.2523
▁layang	-11.2523
▁haduh	-11.2523
▁karuan	-11.2524
▁fasil	-11.2524
▁nadia	-11.2524
▁aamin	-11.2525
copy	-11.2525
▁salju	-11.2525
▁never	-11.2525
▁islam	-11.2527
▁mendesak	-11.2527
▁betah	-11.2527
▁apple	-11.2527
▁bhin	-11.2527
▁nyimp	-11.2528
▁berselfie	-11.2529
▁live	-11.2529
▁nafkah	-11.253
▁memotivasi	-11.2531
▁rahman	-11.2531
▁batre	-11.2531
▁asap	-11.2534
▁terduga	-11.2535
▁pipis	-11.2537
engabdi	-11.2537
▁otorit	-11.2537
▁tlat	-11.2538
▁karet	-11.2538
▁tegal	-11.2539
duga	-11.2541
▁bergotong	-11.2541
▁nurul	-11.2542
▁chu	-11.2542
▁berencana	-11.2543
▁kenyang	-11.2545
▁andre	-11.2546
▁segel	-11.2546
takdir	-11.2546
▁more	-11.2547
kses	-11.2549
▁terbangun	-11.255
ajikan	-11.255
▁segen	-11.2551
▁pemain	-11.2553
▁ntr	-11.2553
▁akhirat	-11.2556
▁nyobain	-11.2558
▁bawaannya	-11.2559
▁lemah	-11.2559
▁view	-11.2561
▁kepake	-11.2561
▁semang	-11.2563
▁haru	-11.2568
▁perabotan	-11.2569
▁agus	-11.2571
▁artis	-11.2577
▁jambi	-11.2583
hubung	-11.2584
▁ceri	-11.259
▁finance	-11.2591
▁lans	-11.2593
▁cetak	-11.2598
▁menggal	-11.2601
▁wb	-11.2605
▁luna	-11.2611
abat	-11.2624
redit	-11.2637
▁sesak	-11.2642
ngkapan	-11.2647
▁brang	-11.265
andy	-11.2651
▁asuh	-11.2656
nja	-11.2659
▁wee	-11.2678
▁dikuburan	-11.268
zahra	-11.2688
eess	-11.269
▁tebakan	-11.269
▁perutnya	-11.2693
▁trima	-11.2709
mpok	-11.271
▁berki	-11.2711
▁sikat	-11.2719
olo	-11.2721
▁perasaanku	-11.2737
▁nang	-11.2743
▁val	-11.2746
▁pendakian	-11.2748
▁asin	-11.275
berat	-11.2767
▁ciptakan	-11.2771
▁aset	-11.2783
▁tara	-11.2783
angkai	-11.2794
▁padu	-11.2809
lengkapi	-11.2814
▁bahasanya	-11.2816
▁bodo	-11.2822
lunas	-11.2826
yasari	-11.2853
▁bandar	-11.2871
▁pp	-11.2871
oyan	-11.2879
ndr	-11.2884
lapor	-11.2894
hembus	-11.2901
latar	-11.291
▁mnggu	-11.2913
hhhhh	-11.2918
agen	-11.293
rti	-11.2933
▁nangka	-11.2933
▁membela	-11.2937
▁av	-11.2939
gon	-11.2948
▁terusss	-11.2963
operasi	-11.2966
eriksa	-11.2975
▁kesal	-11.3007
▁adl	-11.3012
utub	-11.3014
▁buu	-11.3025
suma	-11.3041
aulia	-11.3046
top	-11.306
▁ls	-11.3061
▁boss	-11.3072
▁ehhh	-11.3076
rpis	-11.3088
▁plann	-11.3109
▁cust	-11.3122
illah	-11.3122
▁bnget	-11.318
▁blan	-11.32
▁jera	-11.3213
▁masya	-11.324
batu	-11.3259
rencanakan	-11.3271
kuburan	-11.3274
terima	-11.328
uee	-11.3286
dap	-11.3299
jaga	-11.33
▁melek	-11.3307
jie	-11.3324
tren	-11.3333
▁mao	-11.3339
▁hayu	-11.3367
neg	-11.3393
▁perio	-11.3397
tuhan	-11.3404
sekeliling	-11.341
kapan	-11.343
finance	-11.3443
wakil	-11.3445
sediakan	-11.3445
cewek	-11.3446
museum	-11.3447
tusuk	-11.3449
guling	-11.3451
pada	-11.3455
damaian	-11.3458
▁perabot	-11.3467
▁pembayar	-11.3469
▁fikir	-11.347
leak	-11.3476
puncak	-11.3479
ones	-11.3491
kamar	-11.3497
▁antik	-11.3515
▁studi	-11.3516
apresiasi	-11.352
kontribusi	-11.352
rahmanirahim	-11.352
silahturahmi	-11.352
▁almarhum	-11.352
▁anugrah	-11.352
▁astagfirullah	-11.352
▁berjodoh	-11.352
▁berlawanan	-11.352
▁digambar	-11.352
▁digigit	-11.352
▁dijajah	-11.352
▁dirgahayu	-11.352
▁disebelah	-11.352
▁ditariktarik	-11.352
▁ditindaklanjuti	-11.352
▁gelantungan	-11.352
▁hansip	-11.352
▁influencer	-11.352
▁jenglot	-11.352
▁kampanye	-11.352
▁keberadaan	-11.352
▁kepolisian	-11.352
▁kesasar	-11.352
▁keseharian	-11.352
▁ketinggian	-11.352
▁kreativitas	-11.352
▁menerapkan	-11.352
▁merokok	-11.352
▁nelayan	-11.352
▁nyolot	-11.352
▁objek	-11.352
▁pemakaman	-11.352
▁pembyrn	-11.352
▁pendukung	-11.352
▁penyelesaian	-11.352
▁peristiwa	-11.352
▁photography	-11.352
▁profesi	-11.352
▁publik	-11.352
▁sepuasnya	-11.352
▁surfing	-11.352
▁transparan	-11.352
▁velvet	-11.352
▁xioami	-11.352
▁antusias	-11.352
▁lelaki	-11.352
▁menyayat	-11.352
▁netizen	-11.352
▁pengajar	-11.352
▁amazing	-11.352
▁bersedia	-11.352
▁ebook	-11.352
▁kelompok	-11.352
▁nominal	-11.352
▁olshop	-11.352
▁semesta	-11.352
▁sumpit	-11.352
▁tergiur	-11.352
▁bercabang	-11.352
▁mngkn	-11.352
▁perbaikan	-11.352
▁sombong	-11.352
▁besarbesaran	-11.352
▁jarum	-11.352
▁tersipu	-11.352
▁melamun	-11.352
curhat	-11.3521
▁wiwin	-11.3521
▁perhitungan	-11.3521
▁search	-11.3521
▁subhanallah	-11.3521
▁jimat	-11.3521
▁mancanegara	-11.3521
▁tmbh	-11.3521
▁menipu	-11.3521
▁penyakit	-11.3521
▁hidangan	-11.3521
▁bertahan	-11.3521
▁seluas	-11.3521
▁kesepakatan	-11.3521
▁petani	-11.3521
▁problem	-11.3521
▁ketagihan	-11.3521
▁dress	-11.3521
▁tradisional	-11.3521
▁eksis	-11.3521
▁trnyata	-11.3521
▁cabe	-11.3521
▁dimeja	-11.3521
▁ditanggapi	-11.3521
▁kawin	-11.3521
▁terjun	-11.3521
▁purw	-11.3521
▁jkt	-11.3521
▁dibuang	-11.3521
▁bersantai	-11.3521
▁akrab	-11.3521
▁zonk	-11.3521
▁keatas	-11.3521
▁mempersulit	-11.3521
pompa	-11.3521
▁bahu	-11.3522
antem	-11.3522
pimpin	-11.3522
▁tanduk	-11.3522
▁ngotot	-11.3522
▁hahahha	-11.3522
▁dsb	-11.3522
▁paylat	-11.3523
▁umk	-11.3523
permainkan	-11.3523
▁cetar	-11.3523
▁pelangan	-11.3523
perpanjang	-11.3523
▁diliat	-11.3523
training	-11.3523
▁jangkauan	-11.3523
▁nyobek	-11.3523
▁kompak	-11.3523
▁menyiap	-11.3524
▁perang	-11.3524
▁menghadiah	-11.3524
▁pengikut	-11.3524
▁mancing	-11.3524
▁melaju	-11.3524
▁honda	-11.3525
▁banci	-11.3525
▁membayangkan	-11.3525
▁print	-11.3525
▁layani	-11.3526
▁cuek	-11.3526
▁talas	-11.3527
▁manusiawi	-11.3528
▁cemas	-11.3528
▁yoga	-11.3529
takut	-11.3529
▁imam	-11.353
▁gunting	-11.353
▁menunda	-11.3531
hasanah	-11.3531
▁memikat	-11.3532
▁bakat	-11.3532
kouta	-11.3533
▁xxx	-11.3533
▁tape	-11.3533
▁jeli	-11.3534
▁boba	-11.3536
▁driver	-11.3536
▁janda	-11.3537
▁ncha	-11.3538
▁naek	-11.3539
▁parit	-11.3541
▁fintec	-11.3542
▁fake	-11.3542
▁terbantu	-11.3542
pulang	-11.3542
▁ragam	-11.3543
▁terbayar	-11.3543
▁ttd	-11.3543
▁kolam	-11.3544
▁singgahi	-11.3547
▁jell	-11.3547
▁notif	-11.3547
▁sumbar	-11.3548
rusak	-11.3549
▁bersalah	-11.3551
▁god	-11.3551
▁design	-11.3551
▁wujudin	-11.3552
▁mengusu	-11.3552
▁yuni	-11.3555
▁bertep	-11.3557
▁karunia	-11.3557
▁mengura	-11.3558
▁genk	-11.356
▁ngaju	-11.3561
▁ungu	-11.3562
▁cermin	-11.3563
▁week	-11.3563
▁lamalama	-11.3566
▁bntu	-11.3566
▁cekikikan	-11.3569
bunga	-11.3569
ntong	-11.357
uruan	-11.3572
sual	-11.3573
▁ramas	-11.3575
▁awak	-11.3576
▁banding	-11.3578
▁layangan	-11.358
▁irt	-11.3587
▁bentak	-11.3588
▁perca	-11.3588
▁faj	-11.359
▁wahhh	-11.3595
▁pojokan	-11.3597
▁alis	-11.3602
▁huh	-11.3602
▁hiks	-11.3605
lembar	-11.3606
▁jus	-11.3618
▁kpan	-11.3619
▁fikiran	-11.3621
▁erat	-11.3623
valid	-11.3624
▁menyat	-11.3626
gatel	-11.3629
▁oli	-11.3649
cir	-11.3652
▁inf	-11.3653
▁nisa	-11.3664
▁irit	-11.3668
▁bapa	-11.3669
▁brs	-11.367
▁jet	-11.3671
▁lucky	-11.3672
lawat	-11.3674
▁wala	-11.3675
▁lp	-11.3683
▁lm	-11.3685
anjur	-11.3687
▁pipi	-11.3697
▁bles	-11.3707
mbak	-11.3714
▁ndan	-11.3753
merdeka	-11.3759
▁denga	-11.3761
▁sampo	-11.3761
▁rem	-11.3776
▁pengemba	-11.3785
▁akn	-11.3794
usia	-11.3807
▁prime	-11.3827
▁hard	-11.3831
▁ora	-11.3833
▁terealisasi	-11.3845
abang	-11.3846
syarat	-11.3846
nggi	-11.3858
▁zo	-11.3884
embus	-11.391
▁diseng	-11.3911
iming	-11.3942
riani	-11.395
ooth	-11.3952
omina	-11.3967
▁jeri	-11.3978
tiup	-11.398
telah	-11.3982
siko	-11.4002
▁yoo	-11.403
▁cici	-11.4031
▁cuss	-11.4037
butuh	-11.4038
ity	-11.4059
▁fre	-11.4071
▁jen	-11.4072
▁bubar	-11.409
▁geli	-11.4097
kop	-11.4103
▁lhoo	-11.411
ahir	-11.4116
indra	-11.4124
▁nek	-11.4125
ofia	-11.4148
maja	-11.417
▁nnt	-11.4176
▁niii	-11.4179
▁inti	-11.4194
wei	-11.4198
▁mantappp	-11.4221
▁nv	-11.4237
▁topi	-11.4272
▁perse	-11.4284
ngking	-11.4287
umma	-11.4288
▁tersera	-11.4294
nama	-11.4326
ming	-11.4329
▁guysss	-11.4341
akhir	-11.4354
utamakan	-11.4359
eeeh	-11.4395
▁hmmmm	-11.4401
▁berganti	-11.4409
utuhan	-11.4412
nurut	-11.4439
wkwk	-11.4447
marah	-11.4448
▁menyeba	-11.4448
simpan	-11.4452
▁yul	-11.4466
▁panggil	-11.447
ririn	-11.4519
alokasikan	-11.453
macam	-11.4537
▁perna	-11.4552
cutter	-11.4555
sosok	-11.4556
hehehe	-11.4556
▁bangka	-11.4557
bohong	-11.4557
blokir	-11.4557
rajin	-11.4557
bioskop	-11.4558
masyarakat	-11.4558
sosial	-11.4558
pohon	-11.4562
adilan	-11.4568
▁perlomba	-11.4572
▁keluh	-11.4577
▁cekikik	-11.4578
kalau	-11.4578
jiwa	-11.458
▁lapang	-11.4583
halang	-11.4585
ngeluar	-11.4586
rab	-11.4593
▁abadi	-11.4593
▁analis	-11.4597
▁menyatu	-11.4601
elanggar	-11.4608
▁ub	-11.4609
osof	-11.4617
▁mpo	-11.4619
▁kmr	-11.462
▁basa	-11.4625
permata	-11.4627
▁luka	-11.4627
▁konsum	-11.4628
▁bpk	-11.4629
▁kompeten	-11.4632
eliminasi	-11.4632
kategori	-11.4632
nekaragaman	-11.4632
perbolehkan	-11.4632
tumpangi	-11.4632
▁albetawie	-11.4632
▁aliandri	-11.4632
▁arsitektur	-11.4632
▁bengkulu	-11.4632
▁bercengkrama	-11.4632
▁berdaulat	-11.4632
▁berdekatan	-11.4632
▁berpuluh	-11.4632
▁bersemangat	-11.4632
▁borobudur	-11.4632
▁caffe	-11.4632
▁catering	-11.4632
▁celengan	-11.4632
▁central	-11.4632
▁discount	-11.4632
▁dispenser	-11.4632
▁ditentukan	-11.4632
▁ektp	-11.4632
▁fenomena	-11.4632
▁gerakgerik	-11.4632
▁hapsari	-11.4632
▁instastory	-11.4632
▁jenazah	-11.4632
▁kegagalan	-11.4632
▁komplen	-11.4632
▁konsentrasi	-11.4632
▁kriminal	-11.4632
▁lamongan	-11.4632
▁management	-11.4632
▁memelihara	-11.4632
▁menggambar	-11.4632
▁mewarnai	-11.4632
▁mihayyu	-11.4632
▁mommyalen	-11.4632
▁muhaimin	-11.4632
▁ngingetin	-11.4632
▁penghuni	-11.4632
▁properti	-11.4632
▁referal	-11.4632
▁restoran	-11.4632
▁sejajar	-11.4632
▁survey	-11.4632
▁berkenan	-11.4632
▁bertahuntahun	-11.4632
▁jemuran	-11.4632
▁jepret	-11.4632
▁masyaallah	-11.4632
▁pembaca	-11.4632
▁runtuh	-11.4632
▁semester	-11.4632
▁servis	-11.4632
▁sipelaku	-11.4632
▁amerika	-11.4632
▁gulita	-11.4632
▁kepanasan	-11.4632
▁keponakan	-11.4632
▁memancing	-11.4632
▁mengesankan	-11.4632
▁musium	-11.4632
▁nginep	-11.4632
▁jetot	-11.4632
▁mogok	-11.4632
▁ninggalin	-11.4632
▁bambang	-11.4632
▁purba	-11.4632
▁dagangan	-11.4632
▁ibuniha	-11.4632
▁yumna	-11.4632
▁mengatasnama	-11.4632
▁mengerikan	-11.4632
▁takjub	-11.4632
▁terharu	-11.4632
▁ngeyel	-11.4632
▁restu	-11.4632
▁larilari	-11.4632
legenda	-11.4632
▁golongan	-11.4632
▁astaga	-11.4632
▁paspasan	-11.4632
▁mksh	-11.4632
▁fakta	-11.4632
▁attitude	-11.4632
grosir	-11.4632
▁idamkan	-11.4632
▁benih	-11.4632
deteksi	-11.4632
▁berdarah	-11.4632
persembahkan	-11.4632
▁bajo	-11.4632
▁wohooo	-11.4632
▁laper	-11.4632
▁berpaling	-11.4632
▁ngalahin	-11.4632
▁dilancarkan	-11.4632
▁keramaian	-11.4632
bincang	-11.4632
▁mencekam	-11.4632
▁bulet	-11.4632
▁jwab	-11.4632
▁payment	-11.4632
▁lelembut	-11.4632
▁berinte	-11.4632
▁permohonan	-11.4633
▁lolos	-11.4633
▁pisah	-11.4633
▁nyesal	-11.4633
▁tonton	-11.4633
culik	-11.4633
injek	-11.4633
▁dibls	-11.4634
▁resiko	-11.4634
▁terjal	-11.4634
▁sumbing	-11.4634
▁gitar	-11.4634
hempas	-11.4635
▁sendok	-11.4635
▁tatapan	-11.4635
▁pelangi	-11.4635
▁curang	-11.4635
▁penerima	-11.4635
▁copas	-11.4635
▁persulit	-11.4635
▁mengungkap	-11.4636
▁mnding	-11.4636
lbih	-11.4636
▁printer	-11.4636
▁hehehehe	-11.4636
▁drpd	-11.4636
tapak	-11.4636
▁ngelunasi	-11.4637
▁pisan	-11.4637
ktual	-11.4637
▁onlineshop	-11.4637
▁minyak	-11.4637
▁studio	-11.4637
▁segitu	-11.4637
▁anggun	-11.4637
▁suzan	-11.4637
▁skrang	-11.4638
▁ketat	-11.4638
▁nyerah	-11.4638
▁intel	-11.4638
▁ijuk	-11.4638
▁insha	-11.4639
▁mager	-11.4639
▁berlaga	-11.4639
▁styl	-11.4639
vice	-11.464
▁trend	-11.464
▁jaja	-11.4641
▁talang	-11.4641
▁diakui	-11.4642
▁bangkit	-11.4643
▁ratu	-11.4643
▁sedia	-11.4645
▁republic	-11.4645
ensin	-11.4647
▁smiley	-11.4647
▁selasa	-11.4648
▁kpd	-11.4648
▁ajja	-11.4649
▁okay	-11.4649
▁boong	-11.4649
▁diera	-11.4649
▁lurus	-11.4651
▁piring	-11.4652
▁merawat	-11.4652
▁dipung	-11.4653
▁boat	-11.4654
▁premium	-11.4655
▁wirausaha	-11.4655
▁petir	-11.4655
▁mengulang	-11.4655
▁ibukota	-11.4656
▁barista	-11.4656
▁zie	-11.4657
▁jangn	-11.4657
raksi	-11.4659
▁menempel	-11.466
▁tercepat	-11.4662
till	-11.4663
▁kedepanya	-11.4665
▁mgk	-11.4666
▁mentang	-11.4667
▁penyimpanan	-11.4667
▁brng	-11.4668
▁desk	-11.467
▁menyatukan	-11.4671
▁youtuber	-11.4674
▁eva	-11.4674
▁dihubungin	-11.4674
▁cwe	-11.4676
▁diteleponin	-11.4678
▁judul	-11.4682
cker	-11.4683
zki	-11.4685
▁tny	-11.4685
▁jls	-11.4685
▁coz	-11.4687
▁menara	-11.4688
▁novi	-11.4689
odai	-11.4698
▁pundak	-11.4701
▁galak	-11.4705
▁watu	-11.471
engkal	-11.4719
▁lamaran	-11.4721
▁ksih	-11.4726
▁sifat	-11.4727
▁udang	-11.4733
cecer	-11.4733
jenuh	-11.4733
▁cup	-11.4734
▁angk	-11.4739
▁temantemanku	-11.4746
▁ditlpon	-11.4748
ware	-11.4751
▁carita	-11.4768
benahi	-11.477
edge	-11.478
tepi	-11.4784
idik	-11.4787
▁poro	-11.4788
▁tour	-11.4805
▁matang	-11.4809
▁tampa	-11.4814
mily	-11.4821
▁membaha	-11.4838
▁singa	-11.4854
baikbaik	-11.4865
▁lamp	-11.4872
▁panti	-11.4909
tho	-11.4927
ranjang	-11.4928
▁file	-11.4989
bumi	-11.4995
▁abs	-11.5022
vitas	-11.5064
lemen	-11.5067
nnnnnn	-11.5069
atw	-11.508
sms	-11.5094
▁konf	-11.5164
maren	-11.5168
zzz	-11.5184
▁kalap	-11.5191
holi	-11.5193
▁tab	-11.5206
▁bala	-11.5236
▁roma	-11.5252
pos	-11.5272
mall	-11.5284
agama	-11.5288
▁kunjung	-11.5307
▁inves	-11.531
pao	-11.5368
entak	-11.5369
▁menyus	-11.5374
▁lohhh	-11.5399
▁camp	-11.5418
ertubi	-11.5438
kreatif	-11.5451
anjakan	-11.5478
▁wowww	-11.5541
jangkau	-11.5578
pikir	-11.5621
▁bully	-11.5626
respon	-11.5639
kejar	-11.5641
bungan	-11.5656
▁seper	-11.5662
elat	-11.5677
▁azza	-11.5701
▁ard	-11.571
angsa	-11.5749
tidak	-11.5767
core	-11.5777
daftar	-11.5787
manfaatkan	-11.5796
▁diping	-11.5801
shoot	-11.5805
jogja	-11.5807
jenis	-11.5807
ngobrol	-11.5807
bapak	-11.5808
teriak	-11.5808
pembiayaan	-11.5809
segel	-11.581
nova	-11.5811
limit	-11.5815
sales	-11.5818
salak	-11.582
belas	-11.5821
tujuan	-11.5824
sore	-11.5828
pagi	-11.5831
adav	-11.5834
sobek	-11.5835
▁rabb	-11.5842
▁sembarang	-11.5846
▁peluk	-11.5847
▁singgah	-11.5849
▁menutup	-11.5849
▁rahma	-11.5852
▁ngikut	-11.5863
▁nelf	-11.5873
elvon	-11.5876
▁dikasi	-11.5878
▁berlomba	-11.5882
▁saudarasaudara	-11.5882
irohmanirohim	-11.5882
perbaharui	-11.5882
▁bacot	-11.5882
▁banjarmasin	-11.5882
▁berbisnis	-11.5882
▁berlangganan	-11.5882
▁bernafas	-11.5882
▁cilegon	-11.5882
▁collection	-11.5882
▁darmawan	-11.5882
▁diproses	-11.5882
▁dropshipper	-11.5882
▁financial	-11.5882
▁fitnah	-11.5882
▁genderewo	-11.5882
▁idtahta	-11.5882
▁inggris	-11.5882
▁keajaiban	-11.5882
▁kecelakaan	-11.5882
▁keluyuran	-11.5882
▁kenangkenangan	-11.5882
▁kesampean	-11.5882
▁keunggulan	-11.5882
▁khoiron	-11.5882
▁maghrib	-11.5882
▁mainstream	-11.5882
▁marathon	-11.5882
▁membeban	-11.5882
▁memerlukan	-11.5882
▁mendahului	-11.5882
▁mendayung	-11.5882
▁mendunia	-11.5882
▁menghapus	-11.5882
▁menunggak	-11.5882
▁merauke	-11.5882
▁meresahkan	-11.5882
▁microwave	-11.5882
▁motret	-11.5882
▁npwp	-11.5882
▁pelakor	-11.5882
▁pelaminan	-11.5882
▁pemutih	-11.5882
▁pengaduan	-11.5882
▁penggemar	-11.5882
▁pengobatan	-11.5882
▁penunggunya	-11.5882
▁pngajuan	-11.5882
▁pngumuman	-11.5882
▁positive	-11.5882
▁risoles	-11.5882
▁samarsamar	-11.5882
▁sedunia	-11.5882
▁seterusnya	-11.5882
▁sidoarjo	-11.5882
▁surviv	-11.5882
▁tembok	-11.5882
▁valentine	-11.5882
▁angkot	-11.5882
▁berbisik	-11.5882
▁bersedih	-11.5882
▁eksekutip	-11.5882
▁fitrah	-11.5882
▁interior	-11.5882
▁karaoke	-11.5882
▁kavling	-11.5882
▁ngiler	-11.5882
▁terlepas	-11.5882
▁berhantu	-11.5882
▁gugel	-11.5882
▁harmoni	-11.5882
▁komedi	-11.5882
▁pencari	-11.5882
▁penghargaan	-11.5882
▁alatalat	-11.5882
▁ekspe	-11.5882
▁juned	-11.5882
▁lezat	-11.5882
▁licik	-11.5882
▁mpuz	-11.5882
▁ngeselin	-11.5882
▁primad	-11.5882
▁terkesan	-11.5882
▁radio	-11.5882
▁terbayang	-11.5882
▁melindungi	-11.5882
▁ijen	-11.5882
▁nongol	-11.5882
▁tergesa	-11.5882
▁dilepas	-11.5882
▁lilis	-11.5882
▁resep	-11.5882
▁disesuaikan	-11.5882
▁leher	-11.5882
▁lubuk	-11.5882
▁keramik	-11.5882
▁pengusaha	-11.5882
▁speed	-11.5882
▁batalkan	-11.5882
▁disuguhi	-11.5882
▁honor	-11.5882
▁permisi	-11.5882
▁club	-11.5882
▁umbul	-11.5882
▁licin	-11.5882
▁trsbt	-11.5882
creadit	-11.5882
▁dimedan	-11.5882
▁sndri	-11.5882
▁pgen	-11.5882
▁seller	-11.5882
▁reuni	-11.5882
▁sumut	-11.5882
▁vampir	-11.5882
rospek	-11.5882
▁jelajahi	-11.5882
deposit	-11.5882
▁konsumtif	-11.5882
sahabatsahabatku	-11.5882
▁dawet	-11.5882
▁kerusakan	-11.5882
▁agennyaa	-11.5882
oblos	-11.5882
▁nyekek	-11.5882
▁larut	-11.5882
▁kelewatan	-11.5882
▁diperlukan	-11.5882
▁dipersulit	-11.5882
▁kepastian	-11.5882
▁lngsung	-11.5882
▁sekiranya	-11.5882
▁herbal	-11.5882
▁blz	-11.5883
▁kontes	-11.5883
▁dokumentasi	-11.5883
▁bbm	-11.5883
▁nyamperin	-11.5883
▁dilanda	-11.5883
▁siasia	-11.5883
▁dimudahkan	-11.5883
▁jerawat	-11.5883
▁idola	-11.5884
▁pict	-11.5884
hantam	-11.5884
▁duta	-11.5884
▁staf	-11.5885
ardhan	-11.5885
cause	-11.5885
▁prcy	-11.5885
▁ambon	-11.5885
▁eneng	-11.5885
▁diletakkan	-11.5885
▁waaaah	-11.5885
▁gatal	-11.5885
▁makeup	-11.5885
▁limbah	-11.5885
ebest	-11.5886
▁mantep	-11.5886
▁notabene	-11.5886
▁jember	-11.5887
▁ryanti	-11.5887
▁tekanan	-11.5887
▁bakso	-11.5887
▁citra	-11.5888
▁penangka	-11.5888
▁nekat	-11.5888
pegang	-11.5889
erdagang	-11.5889
▁yaelah	-11.5889
▁lawu	-11.5889
▁berbahagia	-11.5889
▁india	-11.5889
▁njir	-11.5889
▁telf	-11.5889
▁niaga	-11.5889
▁agenda	-11.589
▁widia	-11.589
▁dibajunya	-11.589
kayla	-11.589
▁haji	-11.5891
basmi	-11.5891
latte	-11.5891
▁pembata	-11.5891
▁membunuh	-11.5891
▁ngemil	-11.5892
libat	-11.5892
▁hoki	-11.5892
berut	-11.5892
▁zulfi	-11.5893
▁desir	-11.5894
▁who	-11.5894
▁grab	-11.5894
▁mangka	-11.5894
▁ulangtahun	-11.5894
▁akad	-11.5895
▁renang	-11.5895
▁jijik	-11.5895
▁seles	-11.5896
▁subs	-11.5897
▁yudia	-11.5898
▁plong	-11.5899
▁miris	-11.5899
▁roda	-11.5899
▁tobat	-11.5901
lsai	-11.5901
erpadu	-11.5903
tapi	-11.5903
▁mangga	-11.5906
▁naji	-11.5908
▁disimp	-11.5909
▁suro	-11.591
karna	-11.5911
▁polong	-11.5912
▁dahlan	-11.5912
▁book	-11.5912
▁paha	-11.5914
lles	-11.5915
▁sinyal	-11.5915
▁perusaha	-11.5915
▁sekeluarga	-11.5917
ship	-11.5918
▁idul	-11.5919
▁asus	-11.5919
▁berbayar	-11.5919
▁miring	-11.592
▁menteng	-11.5922
jurnya	-11.5923
wkwkwkwkwk	-11.5925
macu	-11.5926
▁ular	-11.5929
njing	-11.5929
▁rabbal	-11.5933
▁canda	-11.5933
tional	-11.5934
▁vip	-11.5935
▁firma	-11.5941
evel	-11.5942
▁ngelam	-11.5946
kagum	-11.5947
exist	-11.5955
cky	-11.5968
perlu	-11.5978
▁medit	-11.5982
serius	-11.5992
▁orna	-11.5993
▁dikerjai	-11.5994
very	-11.5997
▁alokasi	-11.5998
oritas	-11.6043
kebon	-11.6044
otot	-11.6048
pingin	-11.6061
▁nara	-11.6068
umumkan	-11.6092
▁dtng	-11.6116
▁page	-11.6122
▁yeayyy	-11.6127
▁menegak	-11.6131
orok	-11.6138
▁sunda	-11.6157
▁nyok	-11.6165
▁merangka	-11.6207
▁sekreati	-11.6251
▁menyal	-11.6258
▁menyama	-11.6296
▁yesss	-11.6302
saputri	-11.6306
umet	-11.6326
▁helo	-11.634
tiwi	-11.6464
▁woiii	-11.6474
▁law	-11.6475
▁krama	-11.6503
enjuru	-11.652
▁taat	-11.6551
nton	-11.6564
aaannn	-11.6569
▁krj	-11.66
periksa	-11.6638
▁koper	-11.6658
▁horeee	-11.6704
detak	-11.6708
mpir	-11.674
▁tanggap	-11.6814
luki	-11.6847
▁lema	-11.6939
▁skr	-11.6967
▁dikena	-11.7007
▁kelili	-11.7022
▁hrb	-11.7043
bangun	-11.7072
tagih	-11.7073
banding	-11.7074
pake	-11.7091
▁ditawari	-11.7163
tolak	-11.7167
▁umpet	-11.7182
serve	-11.7204
flash	-11.7208
ndir	-11.7213
persiapkan	-11.7214
▁pari	-11.7216
▁poko	-11.7229
lancar	-11.7229
minggu	-11.7234
upload	-11.7235
jumlah	-11.7236
keinginan	-11.7236
makmur	-11.7236
besok	-11.7236
perlombaan	-11.7236
cerdas	-11.7236
akibat	-11.7236
colek	-11.7236
video	-11.7236
hancur	-11.7237
mantan	-11.7238
duduk	-11.7244
layang	-11.7251
garis	-11.7255
sulit	-11.7261
maju	-11.7266
agus	-11.7269
ternati	-11.728
labuh	-11.728
iband	-11.7282
▁kredi	-11.7285
▁scree	-11.7297
remas	-11.7297
emimpin	-11.7308
epati	-11.7308
kabar	-11.7308
ciprat	-11.731
▁alhamd	-11.731
leluasa	-11.731
pandaipandai	-11.731
simanjuntak	-11.731
sinkron	-11.731
▁adrenalin	-11.731
▁berfaedah	-11.731
▁bermartabat	-11.731
▁bersebelahan	-11.731
▁berswafoto	-11.731
▁bertumbuh	-11.731
▁bidadari	-11.731
▁cendrawasih	-11.731
▁cerobong	-11.731
▁depkolektor	-11.731
▁didikbudiono	-11.731
▁digibankbydbs	-11.731
▁dijanjikan	-11.731
▁dipelajari	-11.731
▁disiapkan	-11.731
▁ditandatangani	-11.731
▁earphone	-11.731
▁emakemak	-11.731
▁employe	-11.731
▁fantastis	-11.731
▁fitnes	-11.731
▁gelomb	-11.731
▁geraldine	-11.731
▁hamzah	-11.731
▁inovatif	-11.731
▁investigasi	-11.731
▁jailangkung	-11.731
▁jengkol	-11.731
▁kayyisabbyan	-11.731
▁kebangetan	-11.731
▁kejanggalan	-11.731
▁kelestarian	-11.731
▁kelimutu	-11.731
▁kemanusiaan	-11.731
▁kemeriahan	-11.731
▁keripik	-11.731
▁kicauan	-11.731
▁knalpot	-11.731
▁kompresor	-11.731
▁malaysia	-11.731
▁melempem	-11.731
▁membosankan	-11.731
▁menandingi	-11.731
▁menjebak	-11.731
▁menonton	-11.731
▁mustahil	-11.731
▁netijen	-11.731
▁nganggur	-11.731
▁nihiwatu	-11.731
▁pacitan	-11.731
▁pemakaian	-11.731
▁pembiayan	-11.731
▁pembodohan	-11.731
▁pemudapemudi	-11.731
▁pencerahannya	-11.731
▁penonton	-11.731
▁penutup	-11.731
▁prasarana	-11.731
▁secukupnya	-11.731
▁sepupuku	-11.731
▁skenario	-11.731
▁stadion	-11.731
▁survei	-11.731
▁tergesagesa	-11.731
▁thankyou	-11.731
▁treadmill	-11.731
▁ubaydillah	-11.731
▁bernyanyi	-11.731
▁dipukul	-11.731
▁endorse	-11.731
▁folower	-11.731
▁gemetar	-11.731
▁individu	-11.731
▁jancuk	-11.731
▁kemarau	-11.731
▁melambai	-11.731
▁menggoda	-11.731
▁shopintar	-11.731
▁tangguh	-11.731
▁bengkel	-11.731
▁dikurangi	-11.731
▁heboh	-11.731
▁pembuka	-11.731
▁pengalihan	-11.731
▁rahasia	-11.731
▁roxy	-11.731
sertifikat	-11.731
▁internal	-11.731
▁lowbat	-11.731
▁berkobar	-11.731
▁bertubuh	-11.731
▁kartini	-11.731
▁mbanking	-11.731
▁mengubah	-11.731
▁menyakiti	-11.731
▁monggo	-11.731
▁pkoknya	-11.731
▁politik	-11.731
▁berlubang	-11.731
▁dipindah	-11.731
▁ditonton	-11.731
▁merindu	-11.731
▁sbnr	-11.731
▁selangit	-11.731
▁eropa	-11.731
▁gerry	-11.731
▁imaji	-11.731
▁money	-11.731
▁spirit	-11.731
▁himbau	-11.731
▁melaporkan	-11.731
▁ansuran	-11.731
▁eksotis	-11.731
▁memanjat	-11.731
▁nulis	-11.731
▁perkotaan	-11.731
▁dimatikan	-11.731
▁peminat	-11.731
▁sepele	-11.731
▁dicafe	-11.731
▁garuda	-11.731
▁obrol	-11.731
▁helai	-11.731
▁mematikan	-11.731
▁ngeluh	-11.731
▁agunan	-11.731
▁peternak	-11.731
▁sabun	-11.731
▁jahit	-11.731
▁berburu	-11.731
▁beramal	-11.731
▁dicapai	-11.731
▁ccilan	-11.731
▁modern	-11.731
▁kemakmuran	-11.731
▁interaktif	-11.731
elidiki	-11.731
▁petang	-11.731
▁tertata	-11.731
▁suplemen	-11.7311
▁charge	-11.7311
▁tersisa	-11.7311
▁berbulanbulan	-11.7311
▁botak	-11.7311
▁freelance	-11.7311
▁diraih	-11.7311
▁kuping	-11.7311
▁dhea	-11.7311
▁montir	-11.7311
▁mekanik	-11.7311
▁cekrek	-11.7311
mbunan	-11.7311
▁finish	-11.7311
▁nyisir	-11.7311
▁yaampun	-11.7311
▁deras	-11.7311
▁keesok	-11.7311
▁aksesori	-11.7311
▁umy	-11.7311
▁leluhur	-11.7311
▁gajah	-11.7311
▁bawel	-11.7311
▁ancaman	-11.7312
▁garut	-11.7312
▁nembak	-11.7312
▁membahu	-11.7312
packer	-11.7312
▁ubannya	-11.7312
▁simpati	-11.7312
▁review	-11.7312
▁menyengat	-11.7312
▁bait	-11.7312
▁irawan	-11.7313
▁hasani	-11.7313
▁rizki	-11.7313
▁pembunuh	-11.7313
▁pembuat	-11.7313
▁dipermudah	-11.7313
▁photogra	-11.7313
▁rantau	-11.7313
▁bebek	-11.7314
▁menggela	-11.7314
▁lgsung	-11.7314
▁crita	-11.7314
▁tangki	-11.7314
▁umam	-11.7315
gosok	-11.7315
▁alikh	-11.7315
▁sektor	-11.7316
empatan	-11.7316
▁dayung	-11.7316
▁anjeng	-11.7316
▁novita	-11.7316
▁elok	-11.7316
stafe	-11.7317
▁mateng	-11.7317
▁telvon	-11.7317
▁cofe	-11.7317
▁tlfon	-11.7317
▁motif	-11.7317
▁logis	-11.7317
▁robb	-11.7318
▁kiara	-11.7318
▁rindang	-11.7318
ginting	-11.7319
▁nyolong	-11.732
▁ngegas	-11.732
▁utuh	-11.732
▁belut	-11.732
▁datadata	-11.732
▁penjaga	-11.7321
▁sukabumi	-11.7321
▁tikar	-11.7321
▁malap	-11.7322
▁salut	-11.7322
▁pertahan	-11.7322
▁tomat	-11.7322
▁gunawan	-11.7323
▁tampan	-11.7323
▁gold	-11.7324
▁batak	-11.7324
▁butut	-11.7324
▁kawasa	-11.7324
▁lebat	-11.7325
▁huhu	-11.7325
▁ngalam	-11.7325
▁traveler	-11.7326
▁imut	-11.7326
▁brani	-11.7327
▁looh	-11.7327
▁kadek	-11.7328
▁mbok	-11.7328
▁adira	-11.7329
▁konter	-11.7329
▁oby	-11.7331
▁audi	-11.7332
▁sofa	-11.7332
▁tmpat	-11.7332
▁menandak	-11.7334
▁secr	-11.7336
▁undi	-11.7336
▁upgr	-11.7337
▁manager	-11.7339
▁cpns	-11.7341
▁dech	-11.7345
▁prau	-11.7345
▁ngatur	-11.7347
plok	-11.7348
▁dtang	-11.7349
▁waahh	-11.7352
▁mode	-11.7354
▁membang	-11.7355
▁tulang	-11.7362
▁sunat	-11.7364
▁kite	-11.7369
cket	-11.7369
mmy	-11.737
kkkkkk	-11.738
▁niih	-11.7381
▁mulia	-11.7384
▁dikelo	-11.7387
▁desti	-11.7435
uansa	-11.7445
▁aaah	-11.7451
▁zona	-11.7466
▁lanta	-11.7467
gestu	-11.7472
ajian	-11.7475
erian	-11.75
awak	-11.7513
nginap	-11.7515
undur	-11.7528
iiiiiiii	-11.753
kisar	-11.7562
▁dsn	-11.7564
▁sumbang	-11.7595
▁menebar	-11.7607
▁tolo	-11.762
egakan	-11.7659
▁meneba	-11.766
egar	-11.768
gih	-11.7744
ungkir	-11.7821
▁hayooo	-11.7822
tiati	-11.7908
▁perlaku	-11.7928
▁mengant	-11.7962
▁kapas	-11.799
nutupin	-11.7992
▁ngom	-11.8074
▁waaah	-11.8111
uji	-11.8144
imbul	-11.821
▁merek	-11.8313
keping	-11.8378
lumba	-11.8387
ungkap	-11.8405
latih	-11.8435
▁gamelan	-11.844
rinci	-11.8451
▁kemerd	-11.8493
riset	-11.8509
shot	-11.8513
okap	-11.8684
keren	-11.8713
usahakan	-11.8717
ercep	-11.8727
sky	-11.8731
fikiran	-11.8744
uuuhhh	-11.8762
▁berbau	-11.8769
tabes	-11.8792
hadiah	-11.8878
ople	-11.8885
▁cake	-11.8888
ngajukan	-11.8892
▁gimn	-11.8895
view	-11.8897
buknya	-11.8897
ngambil	-11.8897
judul	-11.8899
ival	-11.8899
bntu	-11.89
tumbuhan	-11.89
gembira	-11.8902
pengetahuan	-11.8902
sepanjang	-11.8902
maksud	-11.8902
marketing	-11.8902
canggih	-11.8902
pemerintah	-11.8902
hukum	-11.8903
pcs	-11.8903
sistem	-11.8903
lontong	-11.8903
rakyat	-11.8903
dlm	-11.8903
terimakasih	-11.8904
berhenti	-11.8907
bentak	-11.8908
fitri	-11.8909
hobi	-11.8911
benda	-11.8912
full	-11.8914
tingkat	-11.8915
byr	-11.8915
motor	-11.8917
gerah	-11.892
▁spiderm	-11.8924
cuma	-11.8928
sehat	-11.8938
engorban	-11.8944
▁mengatas	-11.8948
ancang	-11.8955
▁jiji	-11.8959
utusin	-11.8964
edepan	-11.897
▁bismill	-11.897
rubah	-11.8971
mbiayaan	-11.8975
▁mungk	-11.8975
▁silatur	-11.8975
▁inspir	-11.8975
strik	-11.8976
▁experi	-11.8977
▁mksud	-11.8977
cenderung	-11.8977
distribusi	-11.8977
ecommerce	-11.8977
suamiistri	-11.8977
▁administrasi	-11.8977
▁anugerah	-11.8977
▁bergaransi	-11.8977
▁berkenalan	-11.8977
▁berlanjut	-11.8977
▁bermodal	-11.8977
▁bersekongkol	-11.8977
▁bersihbersih	-11.8977
▁bertransaksi	-11.8977
▁brengsek	-11.8977
▁butikfinance	-11.8977
▁cakrawala	-11.8977
▁colector	-11.8977
▁depcolector	-11.8977
▁direject	-11.8977
▁diselenggarakan	-11.8977
▁disembunyikan	-11.8977
▁disundul	-11.8977
▁double	-11.8977
▁factor	-11.8977
▁finally	-11.8977
▁firmansyah	-11.8977
▁hadeuh	-11.8977
▁handfone	-11.8977
▁harahap	-11.8977
▁husnul	-11.8977
▁indomart	-11.8977
▁insentif	-11.8977
▁jempol	-11.8977
▁jengkel	-11.8977
▁jimbaran	-11.8977
▁kebencian	-11.8977
▁kebijakan	-11.8977
▁kegagahan	-11.8977
▁keroncong	-11.8977
▁ketidaknyamanan	-11.8977
▁keyakinan	-11.8977
▁laknat	-11.8977
▁lifestyle	-11.8977
▁luarbiasa	-11.8977
▁melancong	-11.8977
▁membekas	-11.8977
▁mengobati	-11.8977
▁menipis	-11.8977
▁merasuki	-11.8977
▁mirror	-11.8977
▁munaroh	-11.8977
▁oleos	-11.8977
▁payudara	-11.8977
▁pekanbaru	-11.8977
▁penelitian	-11.8977
▁permintaan	-11.8977
▁posesif	-11.8977
▁prasetya	-11.8977
▁prewed	-11.8977
▁privacy	-11.8977
▁progress	-11.8977
▁project	-11.8977
▁rahmadhan	-11.8977
▁rebahan	-11.8977
▁recomende	-11.8977
▁recommended	-11.8977
▁record	-11.8977
▁ridho	-11.8977
▁screnshot	-11.8977
▁semprot	-11.8977
▁sepoisepoi	-11.8977
▁surprise	-11.8977
▁teknisnya	-11.8977
▁teletubbies	-11.8977
▁terbebani	-11.8977
▁terpencil	-11.8977
▁trmksh	-11.8977
▁wonosobo	-11.8977
▁zulfa	-11.8977
kamuflase	-11.8977
prasetyo	-11.8977
▁annabelle	-11.8977
▁cendol	-11.8977
▁group	-11.8977
▁iblis	-11.8977
▁island	-11.8977
▁london	-11.8977
▁manggis	-11.8977
▁menyejukkan	-11.8977
▁ngancem	-11.8977
▁papuma	-11.8977
▁pesimis	-11.8977
▁sawarna	-11.8977
▁tamasya	-11.8977
▁terpisah	-11.8977
▁tersambung	-11.8977
▁thinking	-11.8977
▁wedding	-11.8977
▁welcom	-11.8977
▁abdul	-11.8977
▁berantakan	-11.8977
▁berbenah	-11.8977
▁bergoyang	-11.8977
▁bermakna	-11.8977
▁diposting	-11.8977
▁intens	-11.8977
▁jebol	-11.8977
▁jepara	-11.8977
▁pengganti	-11.8977
▁pertanian	-11.8977
▁sasaran	-11.8977
▁sayyid	-11.8977
▁selayar	-11.8977
▁wishlist	-11.8977
supermarket	-11.8977
▁disamper	-11.8977
▁elegan	-11.8977
▁kardus	-11.8977
▁kecilkecilan	-11.8977
▁uvo	-11.8977
khianat	-11.8977
▁barokah	-11.8977
▁bungkul	-11.8977
▁manual	-11.8977
▁seafood	-11.8977
▁fadhil	-11.8977
▁fuck	-11.8977
▁indosat	-11.8977
▁jtbln	-11.8977
▁rental	-11.8977
rious	-11.8977
romansyah	-11.8977
▁bocor	-11.8977
▁cridit	-11.8977
▁dipinjam	-11.8977
▁jahanam	-11.8977
▁marensa	-11.8977
▁pedesaan	-11.8977
▁sorry	-11.8977
▁tebing	-11.8977
▁jannah	-11.8977
geledah	-11.8977
▁dtelp	-11.8977
▁japri	-11.8977
▁logic	-11.8977
▁close	-11.8977
▁flast	-11.8977
▁hidung	-11.8977
▁berpakai	-11.8977
▁ngeheng	-11.8977
▁snack	-11.8977
▁lelet	-11.8977
▁rachman	-11.8977
▁samarinda	-11.8977
▁keahlian	-11.8977
▁krmh	-11.8977
▁risau	-11.8977
reenshot	-11.8977
▁hidayat	-11.8977
rtual	-11.8977
▁berkumis	-11.8977
▁ulfa	-11.8977
▁menindak	-11.8977
▁dilantai	-11.8977
▁tersemogakan	-11.8977
▁rahim	-11.8977
▁gugus	-11.8977
▁iklas	-11.8977
▁kentut	-11.8977
futsal	-11.8977
▁dirobek	-11.8977
▁semedi	-11.8977
▁bersenggolan	-11.8977
▁standar	-11.8977
▁narik	-11.8977
▁fest	-11.8977
▁teriakteriak	-11.8977
▁ncang	-11.8977
▁ponakan	-11.8977
▁songong	-11.8977
▁aisyah	-11.8977
▁silver	-11.8977
klarifikasi	-11.8977
▁amien	-11.8977
▁diitung	-11.8977
▁cipratan	-11.8977
▁kepikiran	-11.8977
▁kemping	-11.8977
▁bktii	-11.8977
▁ybs	-11.8977
integritas	-11.8977
▁tersembunyi	-11.8977
hanyut	-11.8977
ambangi	-11.8977
▁gelagat	-11.8977
▁lampau	-11.8977
▁sentuhan	-11.8977
▁temui	-11.8977
▁menginjak	-11.8977
praktek	-11.8977
▁adrian	-11.8977
▁winner	-11.8978
▁disengaja	-11.8978
▁sebenarbenarnya	-11.8978
▁lebay	-11.8978
▁kubeli	-11.8978
▁huni	-11.8978
intansi	-11.8978
uare	-11.8978
▁sinaga	-11.8978
▁yulianti	-11.8978
▁agustin	-11.8978
▁yusuf	-11.8978
▁cheking	-11.8978
▁dituduh	-11.8978
▁kabeh	-11.8978
▁trakhir	-11.8978
▁buffe	-11.8978
▁ketaman	-11.8978
▁aeon	-11.8978
▁triple	-11.8978
gencar	-11.8979
▁memeluk	-11.8979
▁chyana	-11.8979
▁cikarang	-11.8979
▁buln	-11.8979
▁banner	-11.8979
tumpuk	-11.8979
▁risky	-11.8979
▁ambisi	-11.8979
▁gift	-11.8979
▁yamaha	-11.8979
▁dsana	-11.8979
▁ttep	-11.8979
swasta	-11.8979
▁ngurus	-11.8979
▁ijab	-11.898
▁oot	-11.898
enyemarak	-11.898
▁dipercepat	-11.898
▁lngs	-11.898
susanti	-11.898
▁kemudi	-11.898
ardiyan	-11.898
▁memberitahu	-11.898
▁sambel	-11.898
sipasi	-11.898
▁tembak	-11.898
▁asiik	-11.898
▁tanggungjawab	-11.8981
▁maybe	-11.8981
▁pemula	-11.8981
▁sampir	-11.8981
▁jojo	-11.8981
▁jurang	-11.8981
▁kreatifitas	-11.8981
▁valak	-11.8982
▁bimbing	-11.8982
▁bangeeet	-11.8982
▁mules	-11.8982
▁cemong	-11.8983
▁trans	-11.8983
eretan	-11.8983
▁kartika	-11.8983
▁ttap	-11.8984
▁wahyuni	-11.8984
▁manteman	-11.8985
▁jelita	-11.8985
▁produkproduk	-11.8986
▁really	-11.8986
▁klien	-11.8987
▁azhar	-11.8987
▁raib	-11.8988
▁shopee	-11.8988
▁daft	-11.8988
▁hoci	-11.8988
apres	-11.8988
▁backpa	-11.8989
▁genre	-11.899
▁fire	-11.899
ranata	-11.899
▁feel	-11.8991
luhur	-11.8992
▁sutra	-11.8993
rondong	-11.8993
ampang	-11.8995
▁ardian	-11.8995
iwul	-11.8995
izin	-11.8997
▁avai	-11.9
sentuh	-11.9004
▁khali	-11.9004
orbankan	-11.9011
▁apes	-11.9012
manage	-11.902
▁malik	-11.9041
cakup	-11.9045
rachma	-11.9062
▁sumat	-11.9066
engingat	-11.9082
djua	-11.9085
▁dikelilingi	-11.9114
▁dimarahi	-11.9128
▁ngumpet	-11.9163
ngurangi	-11.9193
ismi	-11.9214
▁lings	-11.9223
bungsu	-11.9276
emaham	-11.9279
ambut	-11.9283
▁ult	-11.9294
iaap	-11.9307
▁comen	-11.9323
bullying	-11.9336
▁cano	-11.9349
ucat	-11.9353
selip	-11.9353
▁kontraksy	-11.9401
lilit	-11.941
pengaruh	-11.9437
mbangkan	-11.9455
banting	-11.9469
▁nugg	-11.9484
aaaaaaaaaa	-11.9573
▁kiki	-11.9577
nnggg	-11.9585
cermin	-11.962
andini	-11.9742
junior	-11.9757
▁tekun	-11.9768
colektor	-11.9931
awai	-12.0005
▁norma	-12.0073
▁nyisih	-12.0136
artha	-12.0175
▁menjela	-12.0268
act	-12.0416
mimpikan	-12.0518
▁selingkuh	-12.0547
work	-12.0621
▁keseri	-12.0682
aplikasi	-12.0731
turunan	-12.0754
ekuni	-12.0795
▁terkec	-12.08
ustom	-12.0818
▁bod	-12.0821
enalin	-12.0852
selfie	-12.0884
biayai	-12.0885
▁selanjut	-12.0897
karunia	-12.0899
rupiahkan	-12.09
tuntut	-12.09
lanjutin	-12.09
lembut	-12.0901
kurnia	-12.0901
ramadhan	-12.0901
datengin	-12.0901
rekomendasi	-12.0902
tindakan	-12.0902
jernih	-12.0902
mumpuni	-12.0902
tersedia	-12.0902
toleransi	-12.0902
ketawa	-12.0902
sederhana	-12.0902
hatihati	-12.0903
bermanfaat	-12.0903
berjuang	-12.0903
lingkungan	-12.0903
beberapa	-12.0903
muncul	-12.0903
asyik	-12.0906
tertib	-12.0909
▁wkw	-12.0911
rudung	-12.0916
▁brewok	-12.0924
▁peminjam	-12.0925
▁menawar	-12.0944
serakan	-12.0959
▁pemili	-12.0959
▁eksplo	-12.0959
▁wilaya	-12.0962
▁pertaha	-12.0962
jumpa	-12.0963
aamiin	-12.0968
▁mencici	-12.0968
gizi	-12.0969
erbak	-12.0969
▁patriot	-12.0977
▁dikepala	-12.0977
▁keterampilan	-12.0977
▁memindahkan	-12.0977
aaamiiin	-12.0977
flyover	-12.0977
hipnotis	-12.0977
intimidasi	-12.0977
january	-12.0977
journey	-12.0977
ndoruwo	-12.0977
product	-12.0977
provokasi	-12.0977
▁achmad	-12.0977
▁afifuddin	-12.0977
▁alunalun	-12.0977
▁anarkis	-12.0977
▁anggraini	-12.0977
▁annoying	-12.0977
▁argopuro	-12.0977
▁atikaristi	-12.0977
▁bepergian	-12.0977
▁bergentayangan	-12.0977
▁beribadah	-12.0977
▁berjanji	-12.0977
▁berkelanjutan	-12.0977
▁berkendara	-12.0977
▁berpendidikan	-12.0977
▁bersenangsenang	-12.0977
▁bersepeda	-12.0977
▁besyukur	-12.0977
▁birthday	-12.0977
▁bissmillah	-12.0977
▁blacklist	-12.0977
▁cemburu	-12.0977
▁cirebon	-12.0977
▁cubbie	-12.0977
▁curcol	-12.0977
▁degdegan	-12.0977
▁delivery	-12.0977
▁dicermati	-12.0977
▁dipalembang	-12.0977
▁diterror	-12.0977
▁doraemon	-12.0977
▁eltami	-12.0977
▁espres	-12.0977
▁etnis	-12.0977
▁evaluasi	-12.0977
▁febuar	-12.0977
▁gendruwo	-12.0977
▁greget	-12.0977
▁gunungkidul	-12.0977
▁hangesti	-12.0977
▁hongkong	-12.0977
▁ilustrasi	-12.0977
▁irsyadarifin	-12.0977
▁istiadat	-12.0977
▁jahannam	-12.0977
▁jalangkung	-12.0977
▁jetski	-12.0977
▁kebablasan	-12.0977
▁keberangkatan	-12.0977
▁kebisingan	-12.0977
▁kemacetan	-12.0977
▁kerinduan	-12.0977
▁keturutan	-12.0977
▁klepek	-12.0977
▁kumbolo	-12.0977
▁magelang	-12.0977
▁mangrove	-12.0977
▁masyrakat	-12.0977
▁membentang	-12.0977
▁meminimal	-12.0977
▁menampakkan	-12.0977
▁menderita	-12.0977
▁meyakinkan	-12.0977
▁milliar	-12.0977
▁minimarket	-12.0977
▁mulukmuluk	-12.0977
▁musibah	-12.0977
▁ngecharge	-12.0977
▁ngegembel	-12.0977
▁oksigen	-12.0977
▁outdoor	-12.0977
▁paranginangin	-12.0977
▁pedroza	-12.0977
▁pelancong	-12.0977
▁pelihara	-12.0977
▁pengelola	-12.0977
▁pengganggu	-12.0977
▁penyemangat	-12.0977
▁peperangan	-12.0977
▁perbukitan	-12.0977
▁pondasi	-12.0977
▁positip	-12.0977
▁prabowo	-12.0977
▁property	-12.0977
▁respect	-12.0977
▁rifaldi	-12.0977
▁sekongkol	-12.0977
▁semestinya	-12.0977
▁sepandai	-12.0977
▁seperjuangan	-12.0977
▁sipencuri	-12.0977
▁suropati	-12.0977
▁tecprotec	-12.0977
▁terjebak	-12.0977
▁thailand	-12.0977
▁tstimni	-12.0977
▁zaskia	-12.0977
▁berbahaya	-12.0977
▁berdatangan	-12.0977
▁biadab	-12.0977
▁cikaso	-12.0977
▁dirham	-12.0977
▁kedinginan	-12.0977
▁navrat	-12.0977
▁ngajarin	-12.0977
▁ngupil	-12.0977
▁nyiapin	-12.0977
▁outfit	-12.0977
▁pembyar	-12.0977
▁pengepul	-12.0977
▁razia	-12.0977
▁riaswati	-12.0977
▁screnshoot	-12.0977
▁senggigi	-12.0977
▁tawuran	-12.0977
▁vespa	-12.0977
▁yolanda	-12.0977
▁berlayar	-12.0977
▁creator	-12.0977
▁dititip	-12.0977
▁kekerasan	-12.0977
▁lesehan	-12.0977
▁menyakitkan	-12.0977
▁outlet	-12.0977
▁pelatihan	-12.0977
▁sebagus	-12.0977
▁summit	-12.0977
▁berbakti	-12.0977
▁joged	-12.0977
▁menghianati	-12.0977
▁merpati	-12.0977
▁tawon	-12.0977
▁beside	-12.0977
▁reply	-12.0977
erdampak	-12.0977
ermusuhan	-12.0977
▁ngarep	-12.0977
▁pemberani	-12.0977
▁pepaya	-12.0977
▁sekejap	-12.0977
▁saving	-12.0977
kelurga	-12.0977
sohor	-12.0977
▁ditelinga	-12.0977
▁mendpt	-12.0977
▁menetap	-12.0977
▁ngidam	-12.0977
▁pangkal	-12.0977
▁rekomen	-12.0977
perbarui	-12.0977
▁berdebar	-12.0977
▁faktor	-12.0977
▁penyalur	-12.0977
▁riyadi	-12.0977
▁sblum	-12.0977
▁kejebak	-12.0977
▁toples	-12.0977
▁flora	-12.0977
▁loading	-12.0977
▁seadil	-12.0977
▁berdering	-12.0977
▁berkemah	-12.0977
▁melahirkan	-12.0977
▁pinjm	-12.0977
▁duper	-12.0977
▁semarak	-12.0977
▁telinga	-12.0977
▁penilaian	-12.0977
ktiny	-12.0977
▁mslh	-12.0977
▁terunik	-12.0977
▁pjm	-12.0977
▁privat	-12.0977
▁selisih	-12.0977
▁persamaan	-12.0977
erintegr	-12.0977
▁patriotisme	-12.0977
▁tampol	-12.0977
▁allamin	-12.0977
▁kiluan	-12.0977
▁persetujuan	-12.0977
▁khanza	-12.0977
▁mmper	-12.0977
▁sultan	-12.0977
▁wuih	-12.0977
pixel	-12.0977
belenggu	-12.0977
▁fight	-12.0977
▁wkkw	-12.0977
▁dipinang	-12.0977
▁menanggapi	-12.0977
▁easy	-12.0977
▁galler	-12.0977
▁kerutan	-12.0977
▁tabuhan	-12.0977
terpuruk	-12.0977
▁jihan	-12.0977
▁keriting	-12.0977
▁meramaikan	-12.0977
▁natal	-12.0977
▁arifin	-12.0977
▁jatah	-12.0977
▁macan	-12.0977
▁illahi	-12.0977
▁saham	-12.0977
blkg	-12.0978
▁menantu	-12.0978
▁ubanan	-12.0978
▁ulet	-12.0978
▁naaah	-12.0978
sepakat	-12.0978
▁sereeem	-12.0978
mcr	-12.0978
▁metro	-12.0978
▁tegur	-12.0978
riyanto	-12.0978
▁sebaliknya	-12.0978
▁ditanam	-12.0978
▁kpr	-12.0978
▁kesenangan	-12.0978
uddin	-12.0978
▁dapt	-12.0978
▁ksana	-12.0978
▁ditabur	-12.0978
▁dilaporkan	-12.0978
nyontek	-12.0978
▁image	-12.0978
▁bhay	-12.0978
embimbing	-12.0978
▁dihargai	-12.0979
▁kejauhan	-12.0979
▁menghadir	-12.0979
▁predik	-12.0979
▁nyenyak	-12.0979
▁cianjur	-12.0979
▁kecoa	-12.0979
▁nyonya	-12.0979
▁belanak	-12.0979
▁dihormati	-12.0979
▁difira	-12.0979
▁hadeh	-12.098
▁aplg	-12.098
▁know	-12.098
▁girl	-12.098
ngkung	-12.098
▁alhmdulil	-12.098
▁ranu	-12.098
▁woow	-12.0981
▁remot	-12.0981
▁boneka	-12.0981
▁penyalah	-12.0982
▁dikembang	-12.0982
copot	-12.0982
▁porta	-12.0983
▁ngekos	-12.0983
food	-12.0984
▁mnjd	-12.0984
▁jelma	-12.0984
▁klrg	-12.0984
▁gebuk	-12.0985
▁stalk	-12.0986
eksplor	-12.0988
▁bintar	-12.0988
▁earn	-12.0989
▁indria	-12.0989
▁dunk	-12.0991
▁keringanan	-12.0993
elubangi	-12.0995
ubruk	-12.0995
▁mors	-12.0995
▁menikam	-12.0995
iasatin	-12.1001
occa	-12.1003
▁plg	-12.1008
▁berdos	-12.1013
▁flexyflas	-12.1015
paytren	-12.1016
▁ikutaaaan	-12.1024
▁koyak	-12.1029
soft	-12.1033
obot	-12.1035
tronik	-12.1051
▁cakeppp	-12.1074
